[PAD]
[UNK]
[CLS]
[SEP]
[MASK]
!
"
'
,
.
?
A
B
C
D
E
F
G
H
I
J
K
L
M
N
O
P
Q
R
S
T
U
V
W
X
Y
Z
a
b
c
d
e
f
g
h
i
k
l
m
n
o
p
r
s
t
u
v
w
x
y
z
가
각
간
갈
감
갑
값
갓
갔
강
갖
같
갚
개
객
갯
갱
거
걱
건
걷
걸
검
겁
것
게
겠
겨
격
겪
견
결
겸
겹
겼
경
곁
계
고
곡
곤
곧
골
곰
곱
곳
공
과
곽
관
괄
광
괜
괴
굉
교
구
국
군
굳
굴
굽
굿
궁
권
궐
궤
귀
규
균
그
극
근
글
금
급
긋
긍
기
긴
길
김
깃
깊
까
깎
깐
깔
깝
깨
꺼
껏
께
껴
꼬
꼭
꼴
꼼
꼽
꽃
꾸
꾼
꿀
꿈
꿔
뀌
끄
끈
끊
끌
끔
끗
끝
끼
낄
낌
나
낙
난
날
남
납
낫
났
낭
낮
낳
내
낸
낼
냄
냈
냉
냐
냥
너
넉
넌
널
넓
넘
넣
네
넷
녀
녁
년
념
녕
노
녹
논
놀
놈
농
높
놓
놔
놨
뇌
뇨
누
눈
눌
눔
눠
뉘
뉴
느
는
늘
능
늦
늬
니
닉
닌
닐
님
닙
닝
다
닥
닦
단
닫
달
닭
담
답
닷
당
닿
대
댐
더
덕
던
덜
덤
덧
덩
덮
데
덴
델
도
독
돈
돋
돌
돕
돗
동
돼
됐
되
된
될
됨
됩
두
둑
둔
둘
둥
뒤
뒷
드
득
든
듣
들
듬
듭
듯
등
디
딜
딩
따
딱
딸
땅
때
떠
떡
떤
떨
떻
떼
또
똑
뚜
뚝
뚫
뛰
뜨
뜰
뜻
띄
띠
라
락
란
랄
람
랍
랐
랑
래
랙
랜
램
랩
랫
랬
략
량
러
럭
런
럴
럼
럽
렀
렁
렇
레
렉
렌
려
력
련
렬
렴
렵
렷
렸
령
례
로
록
론
롤
롭
롯
롱
뢰
료
룡
루
룩
룬
룰
룹
뤄
류
륙
륜
률
륭
르
른
를
름
릅
릇
릉
리
릭
린
릴
림
립
릿
링
마
막
만
많
말
맑
맙
맛
망
맞
맡
매
맥
맨
맵
맹
맺
머
먹
먼
멀
멈
멋
멍
메
멘
며
면
멸
명
몇
모
목
몬
몰
몸
못
몽
묘
무
묵
묶
문
묻
물
뭄
뭐
뭔
뭘
뭡
뮤
므
미
믹
민
믿
밀
및
밑
바
박
밖
반
받
발
밝
밟
밤
밥
방
밭
배
백
밸
버
번
벌
범
법
벗
베
벤
벨
벼
벽
변
별
병
보
복
본
볼
봄
봅
봇
봉
봐
봤
부
북
분
불
붉
붕
붙
뷰
브
블
비
빅
빈
빌
빗
빙
빚
빛
빠
빨
빵
빼
뼈
뽑
뿌
뿐
쁘
쁜
사
삭
산
살
삶
삼
삽
상
새
색
샘
생
샤
서
석
섞
선
설
섬
섭
섯
섰
성
세
센
셀
셈
셋
셔
션
셜
셨
소
속
손
솔
송
쇄
쇠
쇼
숍
수
숙
순
술
숨
숫
숭
숲
쉬
쉼
쉽
슈
스
슨
슬
슴
습
슷
승
시
식
신
실
싫
심
십
싱
싶
싸
싹
싼
쌀
쌍
쌓
써
썼
쎄
쏟
쓰
쓴
쓸
씀
씨
씩
씬
씻
아
악
안
앉
않
알
암
압
앗
았
앙
앞
애
액
앤
앱
야
약
얀
양
얘
어
억
언
얻
얼
엄
업
없
엇
었
엉
에
엑
엔
엘
엠
여
역
연
열
염
엽
엿
였
영
옆
예
옛
오
옥
온
올
옮
옳
옴
옵
옷
옹
와
완
왔
왕
왜
외
왼
요
욕
용
우
욱
운
울
움
웃
웅
워
원
월
웠
웨
웹
위
윗
유
육
윤
율
융
으
은
을
음
읍
응
의
이
익
인
일
읽
잃
임
입
잇
있
잉
잊
잎
자
작
잔
잖
잘
잠
잡
장
재
쟁
저
적
전
절
젊
점
접
정
젖
제
젝
젠
져
졌
조
족
존
졸
좀
좁
종
좋
좌
죄
죠
주
죽
준
줄
줍
중
줘
줬
쥐
즈
즉
즐
즘
증
지
직
진
질
짐
집
짓
징
짚
짜
짝
짧
째
쨌
쩔
쪼
쪽
쫓
쭉
쭤
쯤
찌
찍
차
착
찬
찮
찰
참
창
찾
채
책
챙
처
척
천
철
첨
첩
첫
청
체
쳐
쳤
초
촉
촌
총
촬
최
추
축
춘
출
춤
충
춰
취
츠
측
층
치
칙
친
칠
침
칭
카
칸
칼
캐
캠
커
컨
컬
컴
컵
케
켓
켜
켰
코
콘
콜
콩
쾌
쿠
퀴
큐
크
큰
클
큼
키
킨
킬
킴
킹
타
탁
탄
탈
탐
탑
탕
태
택
탱
터
턱
턴
털
테
텍
텐
텔
템
토
톡
톤
톱
통
퇴
투
튜
트
특
튼
틀
틈
티
틱
팀
팅
파
판
팔
팜
패
팩
팬
퍼
펀
펌
페
펜
펴
편
펼
평
폐
포
폭
폰
폴
폼
표
푸
푼
풀
품
풍
퓨
프
픈
플
피
픽
핀
필
핑
하
학
한
할
함
합
항
해
핵
햇
했
행
향
허
헌
험
헤
헬
혀
혁
현
혈
혐
협
혔
형
혜
호
혹
혼
홀
홈
홍
화
확
환
활
황
회
획
횟
횡
효
후
훈
훌
훨
훼
휘
휴
흉
흐
흑
흔
흘
흙
흡
흥
희
흰
히
힌
힐
힘
##카
##쭤
##보
##아
##야
##겠
##다
##해
##결
##에
##강
##검
##사
##광
##상
##품
##으
##로
##서
##는
##르
##타
##세
##소
##기
##각
##정
##부
##분
##답
##팀
##이
##송
##졌
##어
##요
##본
##지
##원
##센
##터
##를
##력
##을
##할
##구
##나
##군
##들
##집
##면
##P
##C
##삼
##립
##합
##산
##화
##물
##가
##실
##적
##하
##고
##l
##t
##a
##v
##거
##시
##험
##었
##던
##도
##니
##까
##회
##장
##i
##e
##떻
##게
##든
##네
##격
##인
##역
##개
##발
##계
##획
##좌
##훼
##유
##통
##멸
##없
##갈
##학
##현
##되
##며
##주
##대
##독
##프
##리
##풍
##업
##과
##연
##수
##둥
##모
##양
##급
##습
##입
##한
##북
##뿐
##만
##감
##웅
##래
##은
##비
##설
##핑
##트
##생
##약
##법
##석
##였
##음
##증
##셨
##데
##공
##크
##볼
##테
##너
##징
##류
##중
##국
##찌
##했
##느
##냐
##영
##방
##임
##호
##포
##년
##써
##제
##츠
##T
##복
##윤
##울
##더
##라
##건
##같
##전
##의
##명
##랑
##문
##단
##체
##동
##님
##민
##운
##직
##팅
##협
##관
##티
##투
##콘
##스
##템
##율
##손
##속
##드
##납
##용
##선
##출
##반
##자
##성
##디
##와
##천
##애
##경
##괴
##잖
##내
##엔
##당
##범
##루
##왕
##조
##재
##휘
##닉
##파
##젝
##순
##몽
##쟁
##식
##노
##께
##Y
##M
##A
##일
##러
##맨
##레
##섬
##려
##점
##즈
##치
##위
##추
##측
##축
##미
##롯
##켜
##련
##록
##료
##바
##람
##됐
##차
##진
##색
##우
##혐
##버
##널
##안
##렵
##저
##걸
##능
##책
##마
##o
##n
##향
##효
##키
##론
##표
##준
##형
##곳
##g
##k
##청
##담
##금
##액
##았
##족
##봉
##심
##승
##냥
##악
##태
##환
##말
##촌
##휴
##워
##커
##릉
##쇠
##처
##럼
##행
##량
##예
##술
##션
##목
##교
##놓
##c
##h
##f
##작
##별
##남
##권
##오
##춰
##린
##텐
##토
##S
##죠
##달
##십
##혀
##y
##u
##m
##편
##텔
##빅
##신
##삭
##망
##렸
##득
##농
##판
##익
##침
##매
##럽
##외
##훈
##특
##긴
##듬
##왔
##켰
##날
##월
##덕
##윗
##s
##r
##등
##듯
##암
##근
##O
##젠
##극
##배
##맛
##살
##돈
##육
##활
##택
##황
##무
##끼
##I
##철
##절
##온
##져
##앙
##쇄
##브
##z
##패
##여
##베
##죽
##항
##불
##줄
##총
##숙
##밖
##확
##난
##박
##염
##림
##친
##혼
##취
##X
##섭
##굴
##탁
##뢰
##종
##N
##응
##폭
##넷
##채
##완
##함
##E
##간
##령
##쇼
##몰
##녹
##찰
##착
##옥
##락
##초
##놀
##란
##블
##률
##맥
##돼
##닙
##넣
##빙
##존
##떡
##끄
##된
##엘
##막
##번
##엠
##벌
##녁
##때
##쯤
##죄
##곤
##녀
##돌
##봄
##언
##흥
##열
##렴
##낙
##렬
##균
##킹
##코
##탄
##홀
##피
##뉴
##받
##겨
##혈
##변
##줬
##갔
##곡
##괄
##폐
##것
##평
##촉
##컨
##셔
##히
##슈
##켓
##찬
##병
##밀
##글
##b
##씨
##퇴
##빈
##끔
##른
##됨
##덧
##그
##궁
##d
##킬
##옷
##맹
##욕
##질
##잔
##랍
##룩
##찮
##D
##R
##옹
##누
##텍
##랄
##셈
##두
##올
##픽
##창
##싸
##움
##랐
##칭
##뇨
##뜰
##먹
##넘
##샘
##흡
##탑
##골
##꼬
##봤
##늘
##층
##쳐
##낌
##잡
##틀
##붕
##름
##턴
##뜨
##럭
##허
##섰
##될
##쓰
##먼
##둑
##w
##짓
##꼴
##못
##듭
##듣
##칙
##짐
##푸
##백
##랜
##벤
##눠
##힐
##케
##엽
##숭
##씩
##킴
##규
##웹
##접
##램
##혁
##칼
##길
##딩
##후
##않
##J
##플
##B
##룡
##읍
##p
##엄
##캐
##탈
##U
##쿠
##멍
##쪽
##눔
##견
##빛
##낭
##딱
##컬
##캠
##퍼
##꿔
##셀
##잘
##뽑
##묘
##값
##참
##G
##므
##객
##희
##억
##충
##겸
##슨
##앤
##덤
##킨
##L
##척
##례
##융
##홍
##놨
##링
##쁘
##큼
##압
##욱
##런
##즉
##륙
##닥
##쳤
##풀
##핵
##섯
##V
##낸
##뭐
##닌
##벽
##메
##새
##F
##멋
##있
##꾼
##씀
##났
##홈
##념
##씬
##머
##릭
##냈
##흉
##꼽
##x
##랬
##털
##짝
##벼
##믹
##숲
##잉
##됩
##륜
##럴
##좁
##갓
##흐
##꾸
##춤
##델
##귀
##혔
##롱
##흑
##폰
##찍
##알
##쉬
##최
##끌
##앞
##헌
##빌
##줘
##슬
##렇
##둔
##긋
##략
##땅
##겁
##클
##렌
##잠
##김
##H
##붙
##따
##옴
##랫
##폼
##뮤
##필
##롭
##긍
##꺼
##탱
##첨
##헤
##팔
##톱
##빠
##굿
##깔
##흔
##혹
##앗
##렷
##뚜
##칠
##녕
##옵
##닝
##첩
##K
##댐
##컴
##깊
##엿
##겼
##깨
##봐
##논
##큐
##꼼
##궐
##및
##벨
##꽃
##콜
##컵
##돋
##째
##숫
##닐
##쾌
##흙
##끝
##떤
##쥐
##페
##놔
##곁
##춘
##펀
##밸
##멘
##슴
##뷰
##맞
##뇌
##곱
##싱
##릿
##픈
##횡
##몬
##덩
##맡
##짜
##웠
##숍
##졸
##봇
##탕
##콩
##웨
##혜
##덜
##곽
##릴
##뛰
##밥
##렁
##잇
##갑
##딜
##끗
##묵
##찾
##헬
##틱
##펌
##늬
##톤
##봅
##웃
##펴
##흘
##깃
##즘
##튼
##쉽
##턱
##잎
##밤
##펜
##밭
##왜
##뤄
##궤
##엇
##탐
##칸
##넉
##빵
##큰
##딸
##W
##륭
##렉
##좀
##뿌
##슷
##닿
##뉘
##퀴
##얼
##끈
##얀
##굽
##뀌
##똑
##넌
##랩
##쩔
##셜
##솔
##퓨
##꿈
##쓸
##랙
##샤
##빗
##릅
##즐
##닫
##톡
##뒤
##뼈
##엑
##몇
##핀
##갯
##닷
##릇
##빼
##뜻
##떼
##룬
##렀
##숨
##앉
##돕
##높
##빨
##촬
##갱
##곰
##둘
##눈
##껴
##낫
##놈
##벗
##떨
##팬
##롤
##줍
##젖
##Z
##덴
##힘
##껏
##첫
##룹
##앱
##굉
##덮
##Q
##왼
##싹
##또
##몸
##쌀
##엉
##뚝
##폴
##낼
##띠
##얘
##셋
##쫓
##깐
##겹
##뭄
##밟
##쭉
##삽
##맵
##쌍
##쌓
##눌
##밑
##닭
##깝
##맙
##푼
##돗
##힌
##좋
##씻
##걱
##맺
##룰
##싼
##팩
##냉
##팜
##낮
##쪼
##튜
##빚
##틈
##쎄
##쁜
##묶
##챙
##걷
##갚
##갖
##떠
##잊
##묻
##썼
##쉼
##삶
##쨌
##쓴
##멈
##싶
##낄
##띄
##많
##읽
##냄
##늦
##꿀
##꼭
##햇
##횟
##잃
##흰
##멀
##짚
##닦
##옆
##뚫
##뭔
##깎
##뒷
##옛
##얻
##옮
##싫
##곧
##밝
##붉
##넓
##훨
##섞
##쏟
##옳
##믿
##끊
##괜
##맑
##짧
##굳
##젊
##낳
##펼
##훌
##겪
##뭘
##뭡
##니다
##으로
##에서
##습니다
##하는
##하고
제조
##하여
위원
있는
##해서
##니까
있다
사업
##한다
##에는
대한
##적으로
경우
우리
##겠습니다
그런
지원
지금
##들이
##부터
##는데
##입니다
아니
한다
##도록
##까지
것이
있습니다
그러
또는
부분
교육
##하였
하고
따라
제항
##렇게
##적인
하는
##제항
##하게
지역
말씀
예산
운영
##에게
##이다
가지
##하기
저희
그래
경기
##다고
제조제항
이런
##위원
시행
##리고
##사업
필요
생각
관한
다음
##라고
계획
관련
추진
그래서
대해서
위해
때문
##었다
관리
규정
따른
위한
위원님
##했다
같은
개정
사람
##기관
##하지
문제
때문에
이상
##어서
서울
##다는
##면서
경기도
것으로
##지만
##으며
사항
##이나
여러
##사를
보고
이렇게
##관리
그리고
##되는
것은
##위원회
제가
내용
##장님
행정
주시
##되어
것을
##거나
업무
안전
전문
지방
통해
사용
등을
현재
##시설
해서
이것
##기를
##교육
해당
##이라
대상
있고
연구
가지고
##습니까
그렇
시설
그런데
질의
그것
다른
문화
##기에
##부장
##에서는
한국
들어
##들의
이번
정도
##에도
##어요
하나
##합니다
도시
국가
제호
##무원
관계
사실
제조의
많이
##계획
개발
설치
발생
법률
사회
lt
##기업
환경
기업
##대로
gt
있도록
##자가
##장은
년도
이용
같이
자료
정보
##께서
실시
조례
그렇게
그러면
등의
##하였다
진행
학교
지난
##들을
어떻
함께
산업
특별
##학교
어떤
있는데
또한
##성을
##하면
##하여야
결과
기술
경우에는
##센터
보면
##으면
##들은
경제
##정을
되어
필요한
기준
##이고
##의를
##랍니다
이하
일부
##자의
##국장
규정에
바랍니다
대구
참여
어떻게
개선
##지를
하겠습니다
정부
신청
위원장
시민
라고
정책
감사
강화
만들
가능
##시는
제공
없는
국민
##되었
되는
##통령
##비스
##력을
대통령
포함
하여
##기술
대하여
많은
확대
##지는
등에
답변
의원
주시기
##산업
활용
일반
공무원
##자는
##드리
위해서
다시
평가
##든지
##복지
##회의
##고요
위하여
지정
개최
제출
의한
확인
##되고
공공
앞으로
##라는
기관
##리를
검토
시간
##아요
##지원
##남도
대표
적극
분야
계속
주요
##환경
##단체
##장을
주민
있었
저희가
특히
마련
##지요
집행
건설
##사가
으로
교통
구성
##개발
##인데
예정
##자치
발전
기간
우리가
프로
부산
##므로
수도
적용
##음에
##된다
여기
##하다
정하는
다양
선정
##제호
설명
상황
활동
방법
의견
대해
이게
보건
현장
그다
투자
##사는
하였
이후
##지역
올해
##하거나
##장이
##안전
##해야
##부장관
이를
##이지
##인의
모두
관광
조사
국제
전체
##거든
기본
##하도록
##연구
##인이
변경
대통령령
하면
##기가
위원회
추가
공동
조성
##원이
홍보
##정책
중요
증가
중앙
##하며
합니다
있어서
원을
##겠다
모든
있을
서비스
어느
여러분
제도
##공사
지급
##으나
##라도
##거든요
생활
##성화
##로서
드리
시장
##안을
구축
상당
어려
대해서는
##정보
소방
금융
해야
말씀을
의료
##문화
##보다
##회를
지속
확보
된다
인정
기획
국내
있어
그러니까
##세요
받아
보호
사건
것이다
생산
그다음에
알고
시작
다양한
장관
이유
한번
때에는
##그램
피해
##자를
신고
여성
##원의
결정
밝혔
학생
제항에
전국
##사항
이제
나가
저희들이
세계
조금
조치
##되었다
##이라고
##사의
요구
노력
다만
제주
##스템
오늘
사업을
아니라
##하셨
농업
##예요
서울시
중심
##하신
##지고
협의
##상을
도로
활성화
등이
제조에
수립
직접
##기는
이루
새로
판단
가장
##보고
되고
##성이
협력
우수
있으며
이러
##금을
지적
예방
민간
자체
부분에
프로그램
회의
피고
##느냐
것입니다
##비를
위반
수가
사무
##하겠습니다
##시장
##서를
##인을
##다가
등록
종합
##과장
계약
아까
##에서도
없이
이해
고려
보니까
건축
저는
##리는
장애
반영
이에
의하여
##로나
##행정
##도로
##이며
##으로써
과정
판결
##하면서
그러나
##으로서
있음
코로나
제항의
##안에
따라서
대비
받은
됩니다
생략
일부터
인천
한편
처리
중소
의사
부담
나오
되었
청소
다음과
##사무
요청
##원을
있다고
방문
문제가
복지
개소
얘기
없다
수출
##개정
##특별
설립
행위
당시
개인
대응
점검
##들에게
먼저
명이
에서
##원은
우선
각각
##잖아요
##별로
##았다
국토
외국
아닙
수행
##교통
지방자치
절차
내년
해당하는
담당
##산물
##하시
심사
##가를
밝혔다
##계를
얼마
규모
##이라는
건강
이러한
편성
##예산
##한테
##드리겠습니다
기능
행사
해양
아닌
현황
##전에
조선
##제를
주택
##활동
대통령령으로
대상으로
개월
##제로
##이에
조정
##가는
해외
##나라
단체
##지에
미래
이야
하는데
재정
좋은
대학
자치
이루어
##자리
##지가
업체
물론
##되지
##립니다
##려고
##행위
이것은
청년
##식을
##하다고
제외
##기로
경영
거기에
##통신
책임
나타
공사
성과
제회
##도시
중에
동안
금액
일본
비용
지원을
때는
이미
겁니다
않고
관하여
말씀드
##십니까
기대
##민국
##실장
공급
청소년
말했다
아이
전에
발표
사유
않는
대한민국
##화를
생각을
조직
부분이
부분은
자동
일까지
중국
판매
##물을
호의
거예요
원이
금년
분석
##시키
이라
제품
이거
##운데
##도를
참석
##주시
있어요
##원에
##처럼
소관
기록
##하고자
목적
수고
##진흥
만들어
범위
##식품
예산을
전남
효과
시스템
사례
##하였습니다
##기간
혁신
단계
기타
중소기업
가족
역할
기반
새로운
하지
관심
##이터
사고
##든가
기존
계획이다
##기관의
##비가
##의회
##주의
##조사
대책
최근
##로부터
검사
제한
소유
소속
수입
너무
이어
굉장
고용
유지
육성
가운데
##이는
이는
상당히
소비
##자원
##본부장
##아서
다음은
##무를
##너지
의회
어린
##경제
전문가
아직
##사회
있으
재산
바로
굉장히
토지
##더라도
자는
통한
##구하고
상태
##수를
제안
##리가
##정한
거기
##부를
내가
내용을
했습니다
모르
##하실
의미
자기
##문을
##자에게
제작
명의
이내
해결
지방자치단체
것도
##이기
구조
자연
충분
감염
그것은
하였다
##주택
청구
##어나
준비
##셔서
유치
##부는
##서는
들어가
연계
통합
되면
밖에
작성
등으로
원고
일자리
이행
##마는
그것을
정말
제조제항제호
##라인
비롯
부족
신설
아니고
##인지
효율
재난
아무
과학
##기준
##다면
구체
##권을
거쳐
년에
사항은
##회계
근로
##음을
제조제항에
전자
장애인
발굴
##정부
사람이
최대
직원
부칙
##선을
##과학
##들도
불구하고
신규
번째
방송
##정에
마치
##원에서
전남도
이전
바에
심의
페이지
##역시
대법
되겠습니다
##도의
##계약
##료를
수준
경과
각종
일부를
체결
##부령
도민
##보호
##정이
체험
##시오
없습니다
감소
##구역
있기
나와
##과의
전시
센터
그냥
그게
##하셨습니다
위탁
있다는
중요한
##고를
##투자
사항을
산림
어디
##력이
일이
의결
예산이
교육청
용역
통해서
전부
##공무원
경찰
##자에
전라
공유
작년
허가
원심
도입
이와
경우에
되는데
자료를
보건복지
체육
대로
##었습니다
갖고
창업
월에
##치를
법령
라며
처음
##자인
##지사
##자체
##했습니다
찾아
지난해
##회사
우리나라
있습니까
선거
##등학교
있지
기금
영향
시군
사회적
위원장님
노동
##소를
##시에
경쟁
##한다고
집중
##부에
##도가
##리에
날부터
##함으로써
아마
마을
있게
##시아
자동차
인사
##부분
건물
더욱
의견을
않은
이것을
파악
##도에
정비
##상의
확산
지하
전기
여기에
##이가
##십시오
제차
##수가
공포
##관은
##평가
거의
시행한다
이사
##조정
##나요
외의
논의
생각이
식품
예를
##장의
선고
일단
방향
부탁
같습니다
##재산
목표
##마트
지자체
공개
않습니까
내지
##수산
조례안
시행일
참가
인력
보조
##관계
##지로
하셨
어린이
향후
인증
않았
그동
임대
방안
높은
수요
상담
부분을
국립
위험
##입니까
##시고
##하는데
그때
##광역시
지도
드리겠습니다
형태
했다
하기
##인은
##본부
세입
건의
했는데
국장님
소재
예술
##담당
의무
동의
사전
공모
보다
기여
어려운
수고하셨습니다
잘못
받고
년간
##자와
##했음
부과
##마다
유통
그럼
##서에
정확
아니한
되었다
##는지
이르
전라남도
아닙니까
하지만
기초
##들과
##겠다는
크게
근거
도내
##거래
계획을
위원님께서
돌아
취득
중심으로
완료
##려는
개의
시대
##대책
구청
되지
##장에
년부터
보험
##업을
전통
소득
##성과
공간
##생활
##지의
자유
##업체
##어야
개정한다
답변을
예정이다
제시
미국
##인가
##하였고
서울특별
##조치
##밖에
정한다
설계
이것이
하며
체계
그렇죠
##동산
관련된
##자로
##협력
실질
말한다
##물의
안정
전년
최초
명을
사이
인한
처분
자신
##수도
시험
무엇
##부의
방식
생각합니다
##명을
사업이
이의
##으로는
법인
자격
확정
일을
##소득
규제
##보험
위원이
아니면
주는
##하였으며
##시면
없으
내려
온라인
구분
같다
직무
주변
하게
매년
##관광
##하였음
##상이
##점을
근무
정당
아주
위치
##조합
##공단
나는
##이라든지
##전을
##원장
시정
그는
세출
농촌
거래
시행령
최소
의사일
스마트
당부
공정
##건을
이상의
참고
가격
##등록
##처리
있었다
차량
사업에
무슨
취업
의원님
광주
##관을
##금이
추경
협조
대전
대법원
이날
##하겠다
##지도
중에서
전문개정
##하기로
##했던
변화
원으로
아동
전환
##감사
##받은
##규모
도움
##관이
##기의
표시
이동
자가
그동안
제조제항의
친환경
노력을
위원님들
매우
제조의제항
받는
관할
##가족
주거
승인
서울특별시
신속
자세
이야기
불법
##대상
이번에
##서비스
올라
들어서
작품
소개
우려
까지
회계
오는
따르
##권의
방역
##하시는
마음
##으로부터
받을
취소
것에
##들에
의해
##스트
당해
제조제호
운용
제기
업무를
실제
##법에
##이에요
표현
##겠습니까
법은
자원
노인
서류
지속적으로
안내
##상에
부터
##단을
부동산
않을
경우는
##금의
말이
주고
입니다
공연
서로
누구
충분히
가능한
##가지고
대부분
##액이
하나에
임시
권한
에너지
창출
##수의
영업
##라든지
##사고
말씀하신
질문
가정
역할을
역사
어렵
바이
의사일정
이름
원칙
세부
부서
제대로
없고
질의하실
희망
그렇습니다
알겠습니다
##적이
##사자
##업무
알려
평균
장소
징수
##부가
예비
운동
상고
진흥
촉진
##됐다
과정에서
성장
감독
지구
접수
##운동
##텐츠
월부터
토론
##임을
대구시
있으면
교육을
성공
내용은
##중에
##체계
행정사무
분류
장기
주식
확진
##전의
적극적으로
재판
협약
##자료
자리
사망
어려움
나라
최고
본다
농림
결과를
##재단
##er
기재
받았
##네요
지나
##성에
그것이
##처분
##장에서
그대로
##기도
##대학교
원의
보내
보급
##시켜
사업은
사랑
##량을
##한다는
인터
관련해서
소송
##대를
지식
##도는
홈페
주로
행복
##기획
정신
그거
비교
지역의
##주는
당초
##규정
아래
상호
##회는
결산
사실은
##회가
민원
전략
소통
글로
##사에
##대학
천만
##파트
##감을
상품
동일
위해서는
조치를
##드시
라는
채용
의거
예상
채무
건립
바람
특수
##부에서
나머
데이터
보상
재단
도시계획
##치는
##졌다
하면서
도서
##위원회의
금지
중인
##의료
말씀드리
발행
##사업을
시범
업무보고
교류
거죠
단위
예산안
##께서는
##on
최종
현실
외국인
긴급
이하의
삭제
손해
##디어
강조
해소
마지
준용
방지
규정을
##구를
글로벌
##로는
가는
채권
품질
질의를
핵심
있고요
정치
운영에
주차
##없이
내에
감염병
##체육
반드시
##공원
경험
모습
##겠지만
의해서
활동을
가서
초과
연결
비롯한
##라고요
결국
##관의
##였다
군수
기념
앞서
##병원
계시
치료
된다고
##비는
그러한
주신
제정
걸로
증액
##은행
##반기
##까지는
##개선
##서의
맞춤
철저
##시간
수익
##보다는
구입
보여
통보
오후
##부장관은
목적으로
방안을
##대에
##었는데
살펴
불가
일부개정
##절차
내용이
나갈
조합
이라고
두고
##겠다고
보유
만큼
비율
존경
앞으로도
수는
인구
마지막
향상
통계
전혀
최선을
아울
##분야
독립
##과정
수정
아울러
있는지
아닙니다
지출
설명을
떨어
생태
가입
##검사
화재
측면
그걸
취약
보완
법에
##전문
소외
평생
구매
경상
보고를
맞는
##비로
선포
분명
##러스
아파트
참조
필요가
항공
홈페이지
##보증
포함한다
##시험
등은
수상
안에
주장
##대의
훈련
년도에
통일
문제는
##해양
농가
정보를
##드립니다
##셔야
주관
년까지
이익
##구조
##신고
납부
출연
일정
발견
##신청
##국의
보는
만약
권리
인해
자율
##액을
하천
특정
필요하다고
표준
광역
사람들이
##방법
하시
##운영
우리는
##담당관
운영을
지역에
계상
##점검
국방
투입
영상
##스로
규칙
나왔
##허가
확충
##규칙
보도
대리
대체
보수
하도록
밖의
입주
사실을
모집
바라
공공기관
##점이
##되며
##되면
##지털
제일
가진
범죄
국토교통
##가요
얘기를
양성
있지만
##됩니다
불편
마치겠습니다
##제가
##in
추천
과태
실천
전반
그의
인터넷
##물이
외교
##에서의
고민
질의해
언제
##계획을
분의
##시스템
장비
거주
##이사
도지사
사업의
단속
##부와
헌법
그리
##선거
서면
에게
가져
전달
검토를
저도
역시
##실을
것이고
##리아
##법인
존경하는
없어
##권이
모양
특별한
도는
마찬
저희들
있었습니다
나서
그에
이내에
말을
##액은
언론
##훈련
음식
##시가
##토록
문제를
상대
##수는
문화재
한다고
##역을
넘어
위에
##적을
비상
배치
콘텐츠
직업
사람은
##머니
이래
맞춤형
추진하고
배출
##인에게
선택
인식
디지털
##했고
주셨
##기구
##농업
정보통신
사장
##회에
##위를
수용
못하고
##마을
##심의
보증
버스
같아요
한다는
##혁신
##나무
##에요
##심사
서비스를
제고
접종
공직
##드는
보고서
##함에
통신
선박
특별회계
##스크
본부
##려면
소요
##더라고요
##으니
대형
당연
주시고
##었던
보통
같은데
종류
##세를
자금
대하여는
바탕
점을
나머지
드립니다
없다고
신용
에는
##레이
##사로
##학생
본문
##버스
명으로
내부
후보
하더라도
##는데요
후에
작은
부여
영향을
##제한
##경찰
수질
명칭
##이라든가
##했다고
부처
소비자
마찬가
실태
실무
고시
가치
##위원회는
장관은
##건설
강원
##상공
방침
이상입니다
##비용
나누
사진
지금까지
관심을
##장과
##되어야
계획임
##랜드
##가가
주십시오
##령을
정부는
보존
상임
존재
##는다
가구
##단지
물품
허용
얼마나
와서
현대
공원
작업
미리
단지
준공
시간이
년이
때에
군사
해도
선생
회복
##발전
이상으로
##약품
##부령으로
간단
합의
개별
##뿐만
##or
##정의
달라
국비
##단의
질병
##이를
공익
##at
##롭게
##적이고
않도록
##란다
재배
##아가
지원하는
##프라
유사
자본
실현
본격
평화
환자
##등의
##금에
##대회
##아야
혹시
##소에
인간
정기
회의를
차지
걸쳐
이걸
조건
북한
관리를
다음에
실제로
세기
인도
연장
다르
##거리
못한
전망
차원에서
##더니
갖추
위원입니다
당사
##량이
진출
##연구원
보장
감사합니다
제안설
만든
수급
강남
간담
##소의
교수
##물관
##대한
접근
있어야
사회복지
##물질
##지구
달리
##히려
어떠
매출
##하려는
싶은
해양수산
##와의
일에
##제품
원활
오히려
의하면
##하기를
##했는데
##al
##전히
오전
##an
실질적으로
##하십니까
출신
않습니다
법률의
##행을
사업으로
출입
##금융
축산
방법으로
대출
과거
##제의
선발
설정
등과
나온
##까지의
위반하여
##장으로
사람을
##하다는
##이스
기후
##가스
대회
동시에
프로그램을
하다
##설팅
혹은
##en
##했으며
달성
##시를
뒤에
##실에서
인하여
없도록
발생한
인건
합동
가까
소독
여부
민주
농어
된다는
##까요
인재
균형
##협약
음악
##제에
이다
선포합니다
수원
아시
##청구
대통령령이
수도권
회사
##인다
교육감
말씀드린
드리고
미만
##단에
왜냐
놓고
기준으로
편의
##으므로
따르면
증거
바란다
운영하고
것처럼
농산물
적극적인
차이가
총괄
##되기
폐기
그건
따로
겁니까
행정사무감사
통과
원래
##하던
철도
포함한
도움이
법무
폐지
##나는
##이었다
부모
##체를
##상황
남아
월까지
##라든가
##렸다
계산
별도로
항목
지원에
연간
이유가
##원으로
##보조
그렇지
기획조정
변호
##들한테
대신
정도로
무료
말씀해
디자인
##번호
##기본
하루
차례
정상
과연
보육
있죠
유형
##공간
##건강
구체적인
승인을
##해를
그랬
어쨌
##인력
협의를
경우가
##이유
##금은
없을
대중
##하세요
조사를
하여야
발급
안건
울산
##소송
과학기술
있던
##어난
공포한
타당
##함을
공고
##계층
세워
정한
북부
##진다
##주민
보관
외에
##기반
전용
##자들이
형성
있거든요
봅니다
빨리
##법이
발전을
일시
자산
기회를
품목
스스로
세대
준수
##랫폼
더불
##소가
시설을
##재정
자문
정착
영화
##으니까
거리
저작
임명
것과
중간
신뢰
##방송
정리
종전의
##만큼
해주
위임
과태료
재무
##제는
쉽게
완화
컨설팅
##시설을
사항에
국회
##시설의
부정
##했을
##었고
##위원장
등급
활성화를
##시행
가공
왜냐하면
고양
똑같
선도
적합
외부
##업자
입장
##니터
통하여
바탕으로
평가를
이건
노후
연도
부당
##으셨
행정안전
그렇지만
시에
시책
국민의
광고
##보건
##상으로
##사업의
발언
말씀드리겠습니다
##철도
##하자
##노동
수수
##위에
돈을
양도
최초로
사이에
장은
인프라
시간을
말고
마무
역량
것이라고
사항이
경과조치
##접종
은행
진료
단서
소상공
사전에
쪽에
상승
##린다
만족
대기
어쨌든
종사
얼굴
주의
##석을
일어나
여성가족
##오는
남북
##되었으며
조항
전단
즉시
##청은
감사를
##집행
재해
국회의
보충
##증을
개편
##재난
교부
##보면
도지
개설
##장애
여건
수집
입법
지금은
회원
관리에
간의
특허
##과장은
약간
##사항을
##판결
여기서
민족
##상은
수산
##단이
받지
문제에
부지
운영하는
병원
명시
학습
##젝트
앞에
##지지
##제도
##되었습니다
시청
위원님이
동료
##게요
하여금
적절
##이용
내에서
##스럽
국토해양
##지방
##케팅
##체험
반대
##났다
듣고
##호의
자체가
개방
##인에
##시키는
성과를
정원
##자금
밝혔음
##ar
##내용
부분도
여행
플랫폼
기업의
받아야
개인정보
##쪽에
##활동을
신청을
##부모
동물
나오셔서
불용
단순
대표이사
##협회
증진
종료
한강
경남
입찰
년에는
합리
하니
##어도
##인과
대구시는
주세요
국무
추정
부문
본부장
그래도
자녀
전담
식으로
제는
나무
상고이유
##건축
만나
파견
민법
조달
드렸
원안
지원할
모니터
생명
성격
투표
나중에
이야기를
시도
##CT
응급
현행
주시면
분명히
물류
증명
별표
##경을
사업비
것인지
최대한
사유가
있으나
과세
##여서
##장님이
일간
##대리
돼요
##물에
국장
아버
구체적으로
##법을
아니하고
지방자치단체의
보고드리겠습니다
체납
##재생
그분
아니에요
상수도
##물로
전화
선임
하나의
구간
분양
지침
누가
생각하고
##사업에
보전
##심히
프로젝트
##되었고
상정
통상
임용
부산시
##사와
비해
등기
##추진
스타
항만
##이라도
사용하는
##교육을
도모
분들이
고등학교
발의
거는
##하려고
관련하여
계획이
##심을
혜택
기울
##시대
##워크
예산은
의장
##계획의
##람회
오염
적정
쪽입니다
세종
매입
##서가
##상담
집단
수밖에
허가를
##대비
현지
##법률
더불어
##관에
자세한
##급여
개념
군데
이후에
업무에
지하철
##예방
##겠느냐
담보
##화에
운행
녹색
##만을
##지와
침해
##님이
##았습니다
##듯이
감면
시기
제외한다
##의원
연구개발
무역
##신을
##조사를
바뀌
과제
되었습니다
사람의
쓰레
감액
이때
##방안
##성의
복합
기계
대책을
예산에
이외
##이면
##수입
특징
농업기술
##질의
추진을
올리
진단
답변해
건데
위촉
전체적으로
소장
지난번
##상품
의거하여
##지원센터
##축산
##봉사
열심히
화장
아름
제조부터
안녕
##능력
기능을
그림
저희는
##보전
국고
진짜
내년도
줄어
유기
##하지만
##액의
우리의
##정비
만약에
마무리
배우
##있는
절차를
연수
말씀이
중점
없어요
대단
고객
명확
정책을
추가로
개정규정
이어서
여름
높이
이유로
##연구소
관람
신문
##조례
감안
##대행
초기
성립
대해서도
미술
경우를
초등학교
인공
항상
##조직
##위원회에
##통상
강화를
경기도는
준용한다
##단은
인근
오래
말씀드렸
지원하고
있었던
제거
공감
물어
고위
##관한
것들이
절감
##화된
개선을
##추어
방법을
모델
기준을
애로
정부의
비슷
##르는
지체
좋아
계신
분이
##종합
못하는
정해
##방향
##놓고
##기기
##오염
##현황
계십니까
징역
있어서는
위원장은
조기
상황을
시민의
##리의
##사례
경기도가
원인
아니한다
아이디어
징계
않아
전개
도와
추진해
##구의
과정을
##보는
퇴직
##문화재
운전
추진할
##처장
정당한
제공하는
기부
##포츠
지역사회
##이트
엄청
여부를
바꾸
행동
##청장
만들기
##금으로
##식이
##여성
##겠어요
##기관에
간에
##유치
위원님들께서
바와
그린
고려하여
경쟁력
경정
##됨에
바이오
당연히
세우
##구가
달러
##려서
안전한
##소방
중단
반환
활용한
누리
유관
첨단
문의
##시키고
예측
어머니
각호의
잠깐
인해서
##하고는
관계자
재활
최소화
측정
관광객
상환
네트
##비의
##가의
위원은
우려가
행사를
약속
수사
매각
##되도록
나름
특례
나아가
신라
##스러
##데이터
위생
##구에
예산편
##과학기술
지방세
##분을
맞춰
확실
참여를
기준에
##점에
내용에
##스를
위원회는
돼서
제호의
농식품
별지
명령
평생교육
행위를
##원과
##예술
산정
원장
되기
상생
거짓
출석
실시하고
매매
##부담
##면에
##계가
##수로
어찌
도서관
채택
백신
##되면서
주제로
가로
어업
드린
##리한
##률이
##받을
km
AI
속에서
##체가
죄송
##체의
하시는
만드는
구역
시민들이
너희
가고
학부모
해제
##적으로는
실적
사후
우수한
##협의회
보이
##에너지
통지
이유는
##부처
삭감
소멸
초청
발생하는
높아
자꾸
자주
##프트
했고
나타나
알아
말씀하셨
이라는
심의를
##안이
그것도
위기
효과가
어떠한
최우
기본계획
발달
##위원회를
##치고
##위원회에서
마케팅
경과한
서식
기획조정실장
성남
억이
##주를
##ion
돌봄
느끼
노선
하수
면적
심리
##ic
지원해
##위탁
제도를
제주도
정도가
해석
모니터링
노래
##재해
가축
대규모
됐습니다
한정
어려움을
##촉진
피해를
##회에서
능력
졸업
방식으로
원은
이사장
추진하는
##경영
그렇다면
평택
변동
감정
가동
공장
거부
극복
자신의
cm
심각
##하였으나
선진
그럴
첨부
중앙행정
법률에
사용할
금년도
없다는
아시아
##책임
그다음
등에서
하신
의심
##결과
박물관
적이
나오는
사법
이것도
게임
위원회의
농어촌
일반회계
##실이
협력을
경북
기억
겨울
그가
정확하게
##대가
쓰고
##인들이
전쟁
않으면
분쟁
지속적인
처벌
지연
맞아
##리로
사업자
창의
##기록
점이
##교육청
포천
권고
종교
##겠죠
기간을
##조건
##자치도
어린이집
##리카
창조
이월
이란
밝혀
교체
운송
시에서
유럽
유인
미세
이곳
부품
의정
많습니다
##내는
분리
텐데
부족한
곳에
일괄
아니하는
의료기관
보시면
정의
법이
불교
##폭력
이거는
내역
##it
비중
면제
질문을
만들고
보인다
하여튼
##리지
##도서
현안
##하되
제항제호
임차
이해를
차별
##다시
중복
수렴
검사를
하거나
##es
인권
정도의
인건비
연말
##화가
마스크
수의
공사를
현장에서
##주로
건을
보안
요양
일상
대행
##공동
##시킬
왔다
##기금
법정
##계의
##소는
시공
계속해서
상당한
길이
중기
상속
##가고
있는데요
명예
##위생
##명령
##만이
##국장은
##어를
지원이
##돼서
본조
특화
이자
것들을
양식
##주고
경우도
하려고
받았다
예정임
심사를
##구나
됩니까
##쪽으로
그중
했을
제출해
모색
근로자
벤처
##국에
안에서
상세
##소장
저소득
투명
신축
분위
결의
책임을
##하시고
##티브
말씀드리면
##기와
##등을
때문이다
고령
##선의
바다
점유
그렇지요
사실상
데는
쪽으로
##실에
뭐냐
기다
##신설
가결
정보화
적용한다
##감독
청렴
##과는
국세
심판
참여하는
차질
때까지
##로를
취급
출자
대처
이끌
실행
근본
접촉
##에게는
철저히
탄소
지켜
아니하다
##받는
시가
##전략
##문이
##부터는
관하여는
##표를
##받아
끝나
##로운
나름대로
산업통상
##자기
분야에
예방접종
국내외
급여
적은
##기고
##받고
지역주민
형사
가야
지키
인상
들어오
상반기
인원
##재를
업종
네트워크
확인할
인정되는
봉사
인정하는
##직원
융합
##질환
산업통상자원
##르고
##권에
##이익
##이었
학술
관세
소규모
지사
그러하지
조성을
있잖아요
##같이
완성
돈이
금액을
규정이
되어야
##해요
##당을
강력
##이드
확인을
인천시
주기
확립
어르
분야의
##요일
것임
법의
확보를
원안대로
##목을
것이며
##동차
##인데요
##연수
기술을
계약을
격려
##보다도
경제적
소방서
작년에
있습니다만
전라남도는
시의
갖춘
년대
힘을
##위원회가
보기
진술
##해도
받아서
자립
본조신설
##협의
대단히
##지에서
공동으로
아닌가
원입니다
##기능
요건
소상공인
관련한
부분들이
되어서
##연합
공식
고등
부산광역시
아름다
시스템을
올해는
##공항
계획입니다
백만
##학습
의견이
원에서
드러
곳이
호선
완전히
낮은
동일한
교사
##성은
불과
제출한
##국에서
중심의
##전거
##장님께서
차단
시켜
화학
영어
분기
아니다
세무
##성장
개정규정은
여수
태백
하니까
비밀
정확한
주문
지역을
##류를
보건복지부
건축물
캠페
조례안에
없습니까
##국이
관계자는
연합
늘어나
없었다
이뤄
뜻을
기획관리
##행위를
사료
현재까지
감축
협회
##이고요
근데
경비
보건환경
지휘
##표준
준비를
지적을
##기한
속하는
효율적인
느낌
농림축산
있음을
##인증
전산
살아
연구를
전파
##관으로
훨씬
있으므로
주실
정하여
##약을
열린
##트를
지진
들면
사는
어르신
건전
##중한
되도록
들고
시키
했던
그렇기
성실
기상
##북도
##하나
효과를
제조까지
좋겠습니다
협업
브랜드
형태로
제주특별
독일
시상
말이에요
산불
총무
##율이
인수
##행사
양해
있었는데
프랑
깊은
기관의
지식경제
##함이
진입
##르게
##인으로
수리
유해
없었
##사업으로
움직
자치행정
배부
##의무
기간이
않았다
발주
주소
공무원의
계획에
선생님
비용을
것인데
없으므로
##웨어
##체계를
급식
하반기
있으니까
건에
제호에
이의가
고속
주제
향상을
기회
##리기
##산업의
때도
참석한
목표로
과장
##보상
받으
##안은
컴퓨
경우에도
미세먼
##테크
자를
한다면
필수
##유산
##하겠
##는가
자료가
용역을
##관리법
학년
##모델
수소
확장
공제
사립
위원님들의
구제
늘어
주시기를
쓰레기
착용
대답
##하에
적발
##수산식품
##일을
##청에
첫째
봤을
##동조합
처한다
말입니다
국토교통부
임금
손해배
##참여
업무협약
분할
종사자
진행을
상황이
쓰는
품종
가맹
대상이
억을
조각
위반한
마음을
마지막으로
전문위원
##되거나
법적
특별법
하겠다
방향으로
요청을
확진자
경력
궁금
수수료
유관기관
##시다
표창
않을까
확대를
검토보고
맞습니다
의뢰
##로써
검찰
협조를
신체
하늘
##과에
관내
부담을
만에
##니스
방침이다
##기업의
##근로
##율을
하나님
간부
##등기
드리는
좋습니다
##군의
속에
유명
태양
결혼
않는다
주간
선정된
경기도의회
##카드
##되었음을
결과가
이전에
##치가
가능성이
싶습니다
##물은
원활한
자치단체
전남도는
도의
당신
마찬가지
해주시
사상
주민등록
고맙
감시
##전자
##치지
결정을
일제
보아
##일이
이라며
홍보를
원에
권리를
결과에
않느냐
##국은
##분이
수여
주최
##리라
밑에
없어서
##자유
##생을
##식으로
오른
효율적으로
지배
##용역
충분한
태백산
##대표
부적
학교에
##목적
카드
시민들의
동의를
장학
착공
이들
들어가는
##했다는
거기서
##위의
개발을
##증진
서민
일으
교육부
##면적
교환
시내
##청에서
자전거
일은
하자
있나요
국유
##품을
배포
당부했다
절대
감사의
농림축산식품
##주가
##리와
##하니
##학과
문화체육
다니
의식
회장
문제점
##하므로
##정과
당시에
지원센터
모습을
아침
본위원
##연금
##사업자
공유재산
컴퓨터
수업
##진흥원
경남도
##학을
##되었음
공시
이상이
광주시
동부
기업이
강원도
아뢰
##시로
##사유
##지침
##점에서
제안설명을
러시아
하고는
매수
만한
##비에
##영향
##부장관이
##법의
##기관이
##창조
발간
##가격
##자재
요즘
구현
영역
소프트
재생
프랑스
하도
##기획관
활발
지사는
있지요
하나는
감사관
가슴
##바이
미흡
있다면
편성하였습니다
##들로
출범
##하기도
필요하다
##위가
##자들의
널리
이용할
서면으로
누구나
삶의
뿐만
폐기물
개요
이용한
해요
물질
보세요
##변화
##없는
위로
도움을
##청이
상황에
금액이
##산림
이른
아프
많고
포럼
공소
들어와
기각
스포츠
방금
위원님들이
자리에
##인가요
방사
##재판
##등에
들여
##파크
##자동차
##중앙
충청
##위는
자원봉사
점에서
규정하고
다소
매립
중학교
자리를
##사건
최소한
본부장님
시작으로
##복합
시행규칙
국회의원
저장
##지역의
계시는
객관
교원
보강
개가
구성된
거지요
##형을
저희들은
잡아
##효과
##시켰
거고
예산안에
##일에
뭔가
시까지
##십니다
정부가
지역에서
용도
##시킨
규모의
전면
본인
부위원장
환경부
연령
강제
그런데도
취약계층
##친다
ICT
##이션
현황을
##림픽
##로서의
활용할
나누어
##민의
내외
산출
조례를
개를
듭니다
의약품
##소에서
제목
##청장은
검증
##경쟁
##차를
페이지에
깨끗
자의
가면
협의회
규정은
선수
고도
유사한
현재는
생물
승진
비록
##TA
예산의
##라면
인가
심도
##스럽게
시립
##업의
방법이
##대는
연락
여호
지표
요구를
유도
기구
포장
##시의
점검을
청취
대폭
점에
생긴
##득이
시는
과장님
##두고
시각
공동주택
##사용
그렇고
##계약을
##ing
이해가
자치구
##내고
##서로
##공자
걱정
##자산
##변경
스타트
##수에
##단장
피고인
수탁
문화체육관광
원하는
다문화
제조를
자료에
##회관
네가
불가능
비해서
올려
개혁
나가는
상황에서
바람직
##무역
고구
##권은
지정된
연속
납세
가스
바가
수산물
##명의
##회사의
일정한
말까지
##센티브
의정부
##된다고
##하였는데
결론
##관한법률
합격
가르
건가요
##방위
##트남
신고를
##하겠다는
어제
행정자치
합니까
##치료
벌칙
##으셨습니다
농정
운영할
소리
##종의
교육과
##지원청
선출
증권
이용하는
물을
청사
##스러운
실시하는
직장
강남구
##스코
간단하게
드릴
정밀
측면에서
변호사
특별히
가을
##화와
처음으로
##st
도시재생
##왔다
정지
별로
주시고요
인용
도정
##장비
그간
인센티브
힘들
민간위탁
규정된
##실의
##기계
나눔
주식회사
대변
여쭤
별도
시부터
대학생
개교
보겠습니다
손을
##량은
관심과
공업
잘못된
됐다
유입
전력
워크
##조의
##수당
잠시
철거
옛날
고유
어려움이
둘째
충족
베트남
##화로
##의가
실내
자료로
일환
권역
##세가
##하다가
맞이
강구
방송통신
##편본
시의회
제안설명
대표적인
있느냐
무상
##지면
##시설에
비추어
제외한
##급식
분야에서
다섯
##감이
학생들이
사실이
개국
물건
제공하고
법을
위법
반복
안산
보이는
간담회
간행
구청장
되겠
개월이
발생할
##기본법
위와
##화의
건지
관여
범위에서
지상
행정안전부
실정
##되는데
##환자
원심판결
##수록
후원
##니라
##실적
유효
부실
이익을
처음에
행사는
한국의
도시철도
교과
진로
실험
##지역에
수령
##안의
가지만
비대
봐야
강화하고
##총리
재활용
아니냐
최우수
임시회
교육과정
##청의
기한
##판매
상업
역량을
사례가
판시
펼쳐
모아
상시
위원회에서
발전에
##사업은
청장
신속한
개시
동향
당사자
시설의
주어
기여할
지적하신
그거는
예수
##면을
일치
지정을
했어요
사업시행
성능
순천
누리집
서명
혜택을
신분
과징
축제
##세대
##국제
##져서
마찬가지로
상대방
둘러
국편본
만들어서
IT
##문에
깊이
공인
새롭게
집합
부탁드립니다
상태에서
기대된다
불러
무효
관리하는
수거
##소년
제출하여야
집행잔
결합
도심
##되어서
##관과
##계획에
중앙행정기관의
입장에서
축소
활용하여
자로
병행
##하시면
##판을
아름다운
민사
맞게
살펴보면
이루어진
##도체
이중
있었고
고용노동
##하였다고
실질적인
경기도의
산지
곤란
법령에
목포
##산을
남부
##보겠습니다
##과제
자리에서
대중교통
받게
나눠
##직을
하실
##실로
##수요
훼손
실효
일자
월에는
##이자
##지능
##까지도
##가에
##차량
소프트웨어
판단을
##공개
##금액
융자
##방지
집행부
원자
국가의
##대응
계기로
현장에
서류를
##소송법
본예산
서부
증가한
원씩
매일
의미가
##하시기
##et
##리오
##분석
주차장
주요업무
##과에서
드리도록
##률을
제조제항을
중앙정부
기본적으로
그와
기회가
##하우
전해
참여할
내일
세출예산
경주
유일
괜찮
영양
##나가
노사
아니하거나
농민
합병
이름을
말하기를
보조금
거점
유아
임금이
선별
##어가
점차
문학
명에
장려
##선이
##소서
것이므로
##el
상징
##디오
##책을
미세먼지
포상
추경에
삼성
출발
##보장
계기가
공항
업체가
용인
나의
##한다면
##명이
목소
숙박
정도는
종합적으로
초등
안심
코로나로
##수산물
실시할
이용하여
수련
##염병
##옵니다
ha
선언
도에서
사업장
##전용
동법
대가
##망을
나올
##계에
##결정
##갔다
순으로
실증
화물
사람들은
전세
인적
제조업
나가겠습니다
출생
고생
##형의
##소비
격리
부탁드리겠습니다
되게
##사에서
내무
제항까지
건이
줘야
##스터
좌우
실시한
찬성
관장
에서는
많아
제대
##임대
일어
게시
##으로서의
종전
해상
##여건
중의
조세
설비
건강한
할인
갑자기
중장
이분
사정
##정지
앞으로는
시설이
사유로
수석
##습니다만
생각하십니까
신기술
복구
방해
##도와
가능하다
##문의
주년
생기
모바
내용으로
##류의
##생물
피해자
조례에
기준이
미래창조
시장님
젊은
하도급
규정한
것으로서
도지사는
기존에
줄어들
것인가
상수도사업
주도
농촌진흥
식물
지어
##작물
한반
##제공
그것에
가치를
대외
나가고
미래창조과학
떠나
통행
##수칙
말하는
년의
아니고요
포괄
상위
##공연
예산편성
가까운
빅데이터
##로서는
원이나
##보를
함은
죄송합니다
##감사를
언급
있겠습니다
단축
##이월
최저
일반적으로
##설명
적용례
신탁
맞지
마땅
기존의
착수
공무원이
같으면
택시
영국
인공지능
열람
##다시피
위원장이
적절한
농지
말씀하시는
##채권
천연
이웃
나타났다
##서식
벌써
허위
##하겠다고
축산물
합니다고
된다가
##미나
년을
요청할
유엔
위원회에
영은
모범
겪고
결국은
관심이
중증
하셨는데
불안
양국
나를
모르겠습니다
영농
주민들이
석유
회수
찾아가는
##되었는데
우리나라의
##하셔서
년도에는
죄를
화성
먹는
돌아가
곳은
##규직
분포
내실
##키로
다하겠다
노력해
기원
##이란
병상
##만으로
손해배상
제품을
##사항에
환경을
##인들의
여기는
방향을
비대면
모바일
요금
전액
##합니까
후단
남은
##센터를
##트로
통제
워크숍
경상남도
MO
달라고
##채무
안전을
##률은
##동에
장이
대상자
이사회
지방자치단체는
##으면서
적법
촬영
지시
얻어
빠른
##더라
그리스
##om
##져야
높이고
##박람회
우수사례
그쪽
태풍
안녕하십니까
특성
추석
처분을
없으십니까
##국민
없기
동아
##의약품
얘기가
##화학
돼야
##시기
##공업
##광고
보이고
구급
공정거래
##프로
##신용
##규제
##상과
##사업이
지역은
이제는
실시간
배정
선제
구축을
증인
데에
지역별
##피해
똑같은
비슷한
##디자인
##교부
##단위
##생산
등이다
임원
없으면
많다
따른다
예방을
##평균
도시개발
##격을
비전
공사가
##밀히
토양
##re
수당
공부
뭐가
오산
오늘은
공중
##시키기
운영비
농림수산식품
활동에
실장님
##관리를
야간
안전성
경계
등록을
##국을
권한을
우편
마음이
옮겨
사람들
비용이
부채
##기로는
하고요
성명
이론
잡고
##지게
했으면
거기에서
받아들
파산
개소를
연구원
##심판
##ation
원과
스타트업
기관이
집에
자기가
##ol
부천
완공
그러므로
장에게
이벤
하시고
다수
없는데
내년에
조례안을
해수
##음이
주민의
지역이
인지
벗어나
##금지
저녁
생각은
문제점이
##드리고
전의
##부로
종결
왕실
##방안을
공동체
원장님
설치를
왔습니다
대전광역시
인당
아무리
창작
FTA
의논
도민의
##청과
입학
사용을
권익
##밀한
분야별
국외
긍정
후보자
부대
것인
이상을
##경기
공보
전년도
데가
하나로
높이기
꾸준
##교류
공통
천여
##군이
고정
원고의
면허
##확인
연천
오고
과정에
하였습니다
먹고
올바
부분들을
##수급
명절
친구
내는
폐쇄
출산
##서와
거라고
편입
풍부
불가피
사이버
지원과
업무추진
##문학
가까이
법원
주무
미치는
구성되어
공단
시급
##라서
##량의
반도체
같고
아무런
서울시가
갈음
##기관은
무기
피해가
지난번에
산업단지
업무보고를
임상
전기통신
##조를
참여한
##하려면
##장애인
##세계
그러다
감리
안전행정
갔다
파악을
여기에서
진행된다
##순환
TV
정도를
길을
저희도
##랐다
##었어요
구속
부분에서
후속
보니
##저히
##근무
사업과
않나
별도의
근대
관찰
##해서는
지원하기
생태계
비즈
자기의
소각
부착
누적
바닥
사정이
진행하고
이해관계
고민을
##경비
안보
않다
##들하고
##규정에
사례를
투자를
##되었으나
일환으로
원고가
저소득층
기반을
취임
드론
##EC
##사항이
직무를
강사
목적을
서울시에서
##소유
앞장
순환
##고에
개통
복원
머리
시설물
푸른
##연구원장
현장을
해운
제공할
##유통
하고자
보건소
시기에
지리
계획은
##행위에
대부
##놀이
천억
##업에
저희들도
당선
위의
방법은
절차에
타당성
##가능
차관
원산
번째로
내고
우주
##들께서
kg
##교육지원청
재직
수록
타고
##검사를
##코자
여론
##스타
부득이
부의
##정책과장
가지는
논의를
학교에서
나타났
대사
아들
상정합니다
되었고
벌금에
##되었다고
국민이
의원이
##쳤다
관계가
세웠
소년
납품
등도
##조항
##교사
##관리에
어차
많았
##이라면
##공사가
군의
아는
있습니다마는
##풀이
##동을
둔다
노력하겠습니다
로봇
##관련
어차피
##관리공단
지방자치법
##기관으로
고구려
자에
##지기
대여
강의
배수
##상태
차이
모여
##미술
거잖아요
앞에서
장관이
##심으로
학교의
회사의
조에서
##드를
사용하고
예외
##세법
질병관리
##연도
그만
시설에
정책에
##자들은
야생
않겠느냐
관계를
##질을
##관에서
전수
업무의
기획재
못하
의무를
##식과
##중립
이유를
학교를
제조제호에
수행하는
국고보조
##겠는데
곳을
##ent
##투표
안성
거고요
임의
계획으로
질의에
편리
##차가
투자유치
대기업
만일
그렇다고
##직공무원
경향
충전
##자나
치매
확산을
소유권이
정하고
설치된
생각하는
##라우
인천광역시
시장이
당시의
마치고
씨는
촉구
예산으로
제공을
학교가
고발
유치원
적어도
대상은
농협
나타난
##번에
주셨으면
면서
고지
전체적인
규모가
인명
부르
것입니까
##뉴얼
##장치
작업을
새만
모두가
##이지만
아직도
혼자
가이드
정례
조례안은
제출을
집행을
조속
정확히
##냈다
개척
##했기
확정된
희생
형법
기대한다
적합한
##등이
추세
계상하였습니다
그룹
다해
들어간
인정할
원자력
요구하는
##신이
실시한다
검토해
##면의
MOU
주주
안전사고
김포
체계를
##자료를
사태
기관에
신청할
원천
##진단
복무
##식은
예비비
원만
연주
자료는
전통시장
보호를
호흡
##플루
다루
자에게
산하
사기
내용의
##히고
##체에
단독
충실
채취
생각해
보행
장치
##이의
매칭
설명해
##센터는
한마
개인의
남편
##만의
##움을
##동강
##혁명
안양
번째는
시대에
간접
교육청에서
신속하게
##이크
##권익
탄소중립
오해
자살
도비
유적
말이죠
나오고
##이어
##했지만
기후변화
시행을
올라가
전후
##업무를
직원이
제외하고는
문서
연휴
그래요
의회사무
교장
설문
##구는
구청장은
집행이
간략
기간은
이용자
용어
부가가
##리면
증대
단기
비롯해
고향
##셔도
반면
말했음
##생태
재료
회의록
판로
가산
##청사
해보
##시티
관광국장
것이었다
이용에
예정입니다
##본을
##리라고
월드
산학
##진을
중지
상향
매월
행복한
명령을
교통사고
같아서
##하였을
구상
##역에
기본적인
##락을
열어
한도
따뜻
없지
온실
말씀드리고
##한데
방문해
놓은
사항입니다
위주로
동남
부합
##is
박람회
분과
경로
여자
##관계를
위법이
과기
##대전
없애
찾는
본래
사업입니다
##공정
##안전처
학급
스트
몸을
나가겠다
아프리카
##교육장
거듭
손실
말씀드리는
##운용
재외
##으신
경기도에서
작용
##개를
일찍
책정
다가
호텔
공직자
임기
여호와
저한테
##시설이
##선거관리
##사무소
방법에
##신문
완전
제약
질환
정수
열악
##ch
해가지고
좋을
##등급
설립된
공모전
##항공
사건을
사육
기업을
시민이
분석을
의료기기
주재
##국가
가치가
일대
내용과
채널
##세의
##NS
##녹지
행정기관의
##il
물리
##복을
가게
##이지를
##IS
직제
위원의
골프
것이냐
동북
가지가
굳이
배당
##공제
있거나
유행
어떻습니까
범위를
교육과학기술
여전히
직원들이
대안
##콘텐츠
수확
제주특별자치도
분담
하나도
공기
##거운
##군은
공기업
존중
적립
충남
배달
응시
되니까
##자문
앉아
주셔서
말에
기획관리실장
##안정
노출
상의
언어
자발
중대한
돌려
년으로
하였음
삼국
분들
##레스
잇는
함께하는
출판
되겠다
주민들의
지능
##단으로
인쇄
##사랑
않겠
섬유
농수산물
세미나
##증명
나가도록
부패
##부장관에게
도착
##기지
발생하지
방위
일방
임진
교통안전
##ou
기본법
현재의
활성화에
고통
##하였던
##사업비
주지
배려
중장기
계획의
경매
금년에
##고등학교
##품질
최근에
복잡
지금부터
상실
두는
##공사의
##이너
때마다
위원회가
소방재난
##포럼
공립
조원
##되었던
마침
##목의
연대
세운
전원
동반
##운송
##화하고
안타
주체
##동의
##단계
입원
일선
중등
쪽이
관리하고
넣어
좋겠다
주시는
##우는
##로의
어촌
노력하고
하수도
##워서
협약을
승계
노력하겠다
제재
입은
역학
바이러스
부분들은
요건을
조례가
환급
출토
교육훈련
준다
정보의
##오니
하셨습니다
치유
명은
##받침
과다
비행
DM
소집
배경
##법은
육성을
경쟁력을
고친다
##점검을
소위
##기간이
한다를
목적이
공영
만전을
의결을
##란이
##러스터
초래
특성을
건조
의미를
##집니다
가결되었음을
끝난
좋지
축하
저감
청산
근거를
국민권익
것만
##신의
분들은
비정
##심이
각별
물이
유망
참고로
수영
갖다가
유족
높이는
피고가
옆에
실업
점은
구직
개최한다
존속
저작권
해양수산부
다중
일단은
##청소년
자체적으로
##주에
위원님들께
사람에게
토지의
사무를
가지로
##도서관
개소에
효력
생겼
답변드리겠습니다
민관
지원한다
하셔야
인력을
새만금
##래도
보입니다
기업에
오늘날
생각할
반응
나면
부위원
##분에
##화는
동참
위협
남양
소속기관
영세
대개
##박물관
염려
##반기에
제고를
이끌어
운수
보지
##말로
##요건
이내의
변화를
##시민
사용료
##연을
주면
SW
##견을
##고는
연안
자신이
없음
가상
알게
##자격
법령의
도출
제호서식
함으로써
조정을
파기
위원회를
법원은
원심은
법제
인하
##방을
비즈니스
토대로
중견
행위에
##정예산
빠져
셋째
##줘야
지지
보살
이천
비롯하여
##개혁
##방재
##우고
점검하고
여객
##과를
불합
신중
##릅니다
기획재정부
민원이
금번
간호
##고가
국산
전북
##주차
뭡니까
청구할
멘토
해산
수행할
좋겠다는
##결산
흐름
지급을
위치한
했다고
##었을
##특례
자세히
아직까지
동안에
하락
관람객
전반에
##류가
그러는
들었습니다
마련하고
통보하여야
가리
##친화
##정보를
명백
아까도
상대로
문제점을
없게
오랜
이듬
이탈
근절
교육정책
보시
업무가
어디에
##았는데
##설비
행정처분
규모는
상대적으로
한다가
나와서
##주시기
활용을
전공
제항을
평소
솔직
##모델링
아뢰기를
제조제항제호에
##소로
##두천
근거가
기조
종이
개발에
매뉴얼
건은
##창업
눈을
##허가를
운영이
##이블
##ra
증가하고
재난관리
##하라
넘어가
확대해
정책의
택지
알려져
사안
추진에
하나가
주력
##스티
물가
동두천
##호를
PC
수준으로
인원이
그를
바라는
마리
지방의
못할
##하기가
##들어
신경
##융합
재난안전
광복
했음
하다가
제의
대를
##전이
도시교통
예정이며
농업인
건전한
강조했다
활용해
올바른
남도
##식에
일원
모르는
이듬해
소음
포기
##제와
국정
##폐기
소유권이전
##적한
효력이
살고
캠페인
평양
대략
제항부터
취지
##렀다
그려
제도가
담배
확인하고
##용품
사이의
##내역
##형으로
역임
본격적으로
영광
개사
##권자
##항의
##했으나
사라
##에의
원심이
산업의
전까지
사용한
계열
이용을
수요가
파주
것이라
##면허
국무총리
취득한
문제도
부정한
##방역
신청한
해결을
재산을
경험을
##드린
거두
##이행
확대하고
##기준을
주거환경
철저한
##여행
생각하는데
육아
##ed
##법령
높여
강한
재개발
##학의
공격
데서
##플루엔
시민들에게
벌어
등장
##주기
안전관리
아닐
귀속
##정보통신
##였던
소지
##각지
않게
넓은
점점
답변이
##대책을
심각한
##냐면
##회장
방문하여
##용으로
피고의
지붕
배제
고속도로
건물을
설치하는
##반을
##센터에서
바꿔
사고가
획득
생겨
사찰
듯이
필요성이
최고의
했기
##부장관의
##이브
기술이
##시효
열리는
리모델링
나간
안정적인
소요되는
경기도에
그럼에도
차지하고
모임
##간에
실패
##해안
산업통상자원부
##증권
경감
이르는
갖추고
미디어
효율적
연구소
이송
##드리도록
맞추
보는데
공표
##당한
동네
건너
되며
##부령이
개정규정에
##간의
해안
포함되어
##미를
##타운
들어갈
교육비
토지를
강화해
꾸준히
법인의
무인
##소통
##금과
##었다고
전체를
##농가
목표를
과도
마련해
이상인
신도시
넘는
실습
##성으로
체크
제호로
##경에
##토론
종목
최초의
엄청난
일자리를
목록
아내
원인이
유튜
도래
불이익
교육은
##기념
보좌
조리
수준의
##동물
그만큼
##부문
군에
압류
지금도
##율은
인정한
방지를
도시주택
제에
경기북
이벤트
되는지
도매
얻은
##기준에
주목
SNS
자금을
##사법
##이요
이르러
전일
기간에
희망하는
제도의
번역
##명령을
그동안에
배부해
##면서도
장식
추후
정돈
나아
양수
기사
##유지
기피
시비
##em
카페
교육의
협동조합
##유공자
비율이
##명은
집을
##란을
문화를
섭취
##하겠음
소화
신속히
대장
##했어요
태양광
기록에
사장님
온실가스
개정을
대변인
소리를
##군을
원심의
거기는
자치행정국장
공공기관의
스마트폰
작가
편집
발령
##이므로
퍼센
못한다
능력을
분은
때부터
##학적
##분의
상장
만료
하되
변화에
##통합
말은
뿌리
받았습니다
지방공무원
마련을
##교육감
##액에
모르고
보고서를
관리가
아니할
낙동강
##리어
##양을
현장의
힘든
발송
인물
제조에서
검색
##벤처
연관
##데요
##치게
##신탁
체감
경관
이루어졌
기둥
전투
법에서
시행하는
식당
상법
##저당
아무래도
##놓은
적응
##기관을
##조치를
원료
한두
##스가
헌법재판
##조가
##수수
##이기도
##화하는
일반적인
드는
##대체
시점
##수지
##보훈
##ct
다녀
내의
면접
어디서
반갑
말씀은
포함하여
##하였다는
##에서부터
##토지
##문제
끌어
##설계
응답
좀을
##검토
##행위의
정치적
맞습니까
명할
모자
##ro
In
여유
행사에
무엇을
하겠다는
##언을
그들의
양해해
테마
정회를
비교적
여러분의
수치
정할
비용은
설치하고
##실은
##조달
시대의
처리를
본위원이
그날
##스포
유출
회사가
##BS
대상을
간담회를
##가치
없지만
##하의
달려
##정책관
포함해서
조문
시행에
##정은
##본부는
참고해
오프
자체를
민속
시행하고
행사가
##고용
부가가치
호에
흘러
##님의
보셨
같고요
기자
연극
이주
일에는
부탁을
전국적으로
운반
##기까지
결정이
배상
##부서
교육행정
무료로
##후보
의지를
##작업
소극
##님을
수료
최선의
진행이
필요로
TF
연기
종자
##발생
아니라고
비로
유예
민방위
주된
충당
##수원
불편을
##등기를
교통국장
가시
정산
##회사가
##니아
##수행
중국의
##성도
파트
제조제항부터
경험이
엄격
있다가
한글
공약
금강
##정책실장
세우고
머리를
없으며
벌금
박사
사업화
##수면
부담이
명입니다
##려야
이슈
예약
##노인
인증을
##범위
외에도
대학교
마약
##시대의
국유재산
합쳐
수술
안을
먹을
##보살
지은
##신청을
이루어질
특성화
제조제항제호의
##설을
들어갔
두기
소유자
임대차
상관
주인
반영한
체계적으로
체계적인
처우
수송
이용해
##대교
선배
신앙
교육이
단어
동조
유가
##였습니다
##조차
이들은
평등
##물류
거야
유발
발생을
어깨
폭염
임대료
아버지
국가가
##위에서
열고
수시로
것들은
본격적인
##오고
상용
##사회의
견해
생계
진행할
대화
추진한다
##미널
즐길
##시와
자랑
현금
순수
내역을
금액은
거거든요
산업부
기반으로
이렇
지급할
무엇이
하였고
병역
보훈
입장을
공간을
##하니까
회에
증축
포함된
임대주택
작성하여
손해를
하라
##산의
금융투자
아이들이
범주
다르게
실시하여
아시다시피
##리스
##정책과
행정사무감사를
필요할
뉴딜
담은
유전
도전
회의에
며칠
유리
송달
##le
재건축
##역량
가급
하겠
코스
가지를
않아요
##공급
남한
직권
신경을
실용
##이로
그곳
담당하는
당초에
거쳐서
배분
의안
특별자치도
붙여
됐는데
이스
생활을
대응을
식품의약품
보면서
곳에서
수돗
대의
##개발사업
화합
대구광역시
##주행
알지
날로부터
본인이
미수
##용지
##작용
남녀
##공동체
독서
중대
진행되고
이로
담당자
광양
토론을
회의에서
인접
환경개선
곳으로
물건을
되었으므로
접속
형평
전시회
입지
방치
순서
차입
진심으로
올림픽
데도
들은
##자본
일본의
계좌
질의하겠습니다
상가
##니어
공무원들이
##국과
##례를
계승
##드릴
유튜브
부속
시작한
가중
연료
주변에
민생
##아동
위원으로
전반적으로
문을
오픈
야외
연구기관
##나게
한반도
붙임
검출
##장관
기대하고
노인복지
반영하여
시책을
입증
##라스
장의
재발
조선시대
형태의
실태조사
뛰어
않으
낙찰
규모로
상하
여러분께
공무원을
들어온
피의
식약
위에서
##에만
쇼핑
각급
미래를
과태료를
이가
되고요
앞두고
##렸습니다
DMZ
##하십시오
이수
개최했다
요구할
도가
##당의
##담보
광역시
번씩
양육
그중에
##란드
방지하기
중개
다수의
제조는
확인해
크고
좋다
발효
끝에
있은
중이다
공적
않았습니다
##히는
지명
비치
보충질의
연차
세금
차원
##서류
편의를
만들어진
중구
고의
시범사업
과제를
계절
의원님께서
다행
##축제
백성
##대리인
생존
##팀장
교육에
이며
##OC
##목에
합리적인
편찬
이행하지
리더
학생들의
##센터가
##센터의
##자유구역
참여해
군포
뒷받침
##범죄
직무대리
선정을
계층
원격
당장
규격
아세
개로
있겠
소형
자격을
##하고요
기능이
공정한
아예
알기로는
서울시의
##고자
##음악
갈등
점용
사무총
터널
##님께서
신청이
지역으로
갖는
증감
절약
있으니
선보
부가
##이니
무덤
윤리
진행될
##면은
##부지
훌륭
가질
되죠
##교의
성폭력
결과는
명칭을
할을
도에
바란다에
말씀드립니다
##CTV
어렵다
재미
동기
##동이
##체는
마시고
행감
비판
##수와
농장
요소
##회의를
차세대
##문은
적용을
##감시
본관은
경기도와
후에는
인재개발
것이기
중소기업의
상인
전송
입장에서는
의존
##정신
사유를
##나갈
단위로
신산업
자제
##단속
지방재정
빠르게
하느냐
##보니까
이쪽
청원
들어왔
현실적으로
##카데
##전은
밀접
연계하여
여름철
일로
##하여서는
교섭
녹지
봤습니다
방제
행정국장
건으로
아니지만
##선으로
##산에
의는
##내에
발전과
대지
공무원은
##면이
제항은
##지어
된다면
되겠습니까
사람에
연금
##승인
##농산물
한시
변제
자료의
##갑니다
관행
CCTV
운영과
개발사업
정회
##공사를
##컨대
이른바
운항
##제조
##력과
진정
원칙에
계시면
##요원
현상
게재
##단과
##교육지원청교육장
조류
대체로
##른다
호응
서구
수의계약
##식의
상고를
의사를
발표한
##중심
개량
마친
##았고
##당이
경제투자
주장하는
죽은
좋겠
이고
인가를
금융기관
전입
원산지
월드컵
kr
##테크노
유물
하던
서남
해지
방안에
얘기는
##색을
시간에
##되었을
##처를
수학
##리게
##바지
마땅히
비가
쪽에서
것이지
보게
##사업법
구별
이루어지고
파악하고
##민주
대표하는
고양시
대한민국의
똑같이
다할
조절
국가와
문화의
차원의
것의
영위
발생하고
의회에서
##스티벌
##군에
##회와
펀드
책임이
피상
고분
경찰청
##시책
##사태
매도
천명
직급
##기에는
지점
##사항은
##통제
분부터
##수준
운동을
사람과
국제협력
반려
##리트
공청
것이라는
부당한
지정되었다
부인
농촌진흥청
선호
얘기하는
공헌
##력의
강력한
예금
##선생
##대문
##와서
올리겠습니다
휴대
업체에
협의하여
상이
금고
##건대
사립학교
해소를
위원들이
정식
지금에
##프로그램
분산
가격이
주말
거지
##교를
도청
급격
위배
##비와
많은데
##소재
점포
기울여
##았던
##교육의
##었으며
소방공무원
##이죠
체결한
중부
표결
제심
정도에
되거든요
건의를
위험이
증여
승용
비영
행안
##연한
건물의
##운동을
##신용보증
잡혀
전반적인
정부에서
추구
농림축산식품부
않아서
##밀하게
실적이
산림청
새마을
명과
팔당
태평
기술개발
상해
피부
##고인
하였으며
##자로서
늘어난
##지정
##비아
않기
강서
##으로서는
##됐습니다
##중독
지급하는
##지면서
혼인
간사
##구매
상담을
해당되는
공사의
개년
땅을
했지만
문제로
억제
제로
그들은
##플루엔자
걸쳐서
주셨습니다
##기간을
제안을
갖다
UN
서울대
보건복지가족
지금의
중앙부처
회의는
롯데
##as
##매매
##협동조합
##하려
오프라인
소홀
보유하고
기준은
농식품부
신호
지니
공무
답변은
개최하여
안전하고
산업혁명
##광역
고급
민자
##목으로
부장
##인트
선서
##퍼스
당초예산
##수렴
##섰다
나머지는
##입찰
면에서
변경을
검토가
고종
호남
계획이며
기관은
자율주행
못하게
##어진
##서트
보유한
상태로
지방자치단체가
이야기가
##이프
사건에
##평가를
다각
##목표
방식을
나선
##상에서
유지관리
##름이
##위험
##하천
반갑습니다
환경국장
발휘
불량
안전하게
##감염
임무
만여
음성
##별로는
식약처
다음으로
이행을
가뭄
금년도에
판단이
##소와
기금의
하셔서
효력을
신의
우선적으로
저렴
추경예산
끝까지
체포
##집을
사회의
##통계
조건을
항공기
경기북부
##고기
농약
노력이
드렸습니다
천백
자유롭게
최적
사람들의
충북
감독을
높게
표기
##국장님
백제
중점을
삶을
문자
##되게
너무나
국어
받도록
건축법
수강
대피
글쎄
반납
이관
잠재
주셔야
청구를
따뜻한
풍부한
뜻풀이
관련해
시절
##고속
얘기입니다
영유
것이니
계시므로
그중에서
##개편
개막
한우
성질
무조건
기업과
##공사는
느껴
##라엘
학원
개발과
단순히
집중적으로
말씀대로
인식을
없었습니다
다짐
미달
##전시
KT
합동으로
교육국장
대부분의
짧은
순회
시에는
##야말로
공산
수석전문
공사는
##라우드
원전
힘쓰
드리면
사업계획
단속을
##ce
사업이다
까닭
법규
도봉
장을
밀집
##일부터
##지원을
총리
보이지
느낄
##작을
때의
의한다
한하여
변화가
앞장서
매장
챙겨
여가
금속
유치를
##하기에
이스라엘
눈에
고충
비례
##지라도
##로가
작품을
##에관한법률
계급
사람도
정관
##만한
##동안
##대출
제조의의
반영이
밖에도
상황입니다
급수
보상을
보건복지국장
양주
아니요
약정
정리를
권장
들어오는
건강보험
민주주의
업계
##비전
##nd
용례
##지역을
세포
정보보호
들을
지원금
임직원
조례로
시장의
이나
허브
의견수렴
유의
신재생
##짜리
뉴스
이것에
##하더라도
남쪽
도의회
행위는
##일보
머물
가평
전형
국토해양부
수를
아끼
의원은
하겠다고
두려
설치한
협의가
조사에
테러
독자
##기술을
##징수
고위험
말로
##그룹
성별
사무처
시행된다
아무튼
##다른
벼슬
대우
##어업
나노
거주하는
인간의
##세에
##소리
##지주
세입예산
소매
입력
저기
강진
세계적인
쪽의
나가서
부사
순간
후반
##함과
개정안
때가
대법관
했다는
남자
때문입니다
##뮤니
사용하지
##us
##나라는
청정
##현장
데이터를
사실입니다
자활
##석이
##인재
##대와
평안
힘이
국토부
##조에
무선
##했으면
외에는
봐서
##활동에
지분
##청을
유료
비영리
드라
알리고
##해의
재판장
동구
##아버
##당에
##된다는
역사적
못은
시흥
쪽을
설치할
시장은
수산업
차지하는
SH
양평
사과
##직으로
##위로
수목
수준을
하려면
소설
공무원으로
사적
과반
##것도
관해서
##차로
개월간
사각지
다하겠습니다
참여하여
고가
##권과
유용
구체적
편성을
높고
관계없이
일과
##시죠
##과학원
고위공무원
한데
##어져
어려워
말씀드릴
소방재난본부장
##법원
우선순
나갔
운영되고
질의하신
불공정
설명회
보험료
사단
##차관
##터리
##절차를
장비를
##카데미
알았
등등
##중개
없는지
판례
화장품
조성에
날짜
들여서
대책이
##국으로
짓고
질의하여
##어버
##공장
반영을
개최되는
찾아가
##iv
##평등
제사
누구든지
적게
호주
##탄소
##업소
나도
다중이용
##하기는
호는
중에는
##am
이내로
##교육법
많으셨습니다
사람들을
장과
##시장과
따르는
##미한
겨울철
세월
많지
에스
절차가
공모를
출동
##ig
놀이
학생이
근저당
##보안
높일
##CC
부서에서
실적을
부재
줄여
환영
##생활을
##로드
좋고
하세요
분간
있더라고요
열악한
제품의
진도
목재
파괴
적용하지
신청서
거친
하였으나
시내버스
개선에
이루고
EU
##정책을
인생
판시사항
차로
##ED
획기
##선에
##수용
받아들이
부분의
보고해
들어가서
정체
만성
않음
의무화
면담
과징금
해양경찰
중요성을
교육지원
편안
진흥원
##정통
##점은
나주
제반
##준비
가만
명확하게
운영해
정말로
미국의
금융감독
##에다가
의무가
토지에
폭력
쾌적한
유동
간략하게
많으
악취
안전점검
논의가
##보호구역
맞춰서
운영한다
이바지
연계한
##형이
##와는
##심사를
분야는
##들께
폐업
##하라고
##자원의
예산결산
##관찰
그은
제조의에
사용하여
하나를
것이죠
양질의
##속에
산재
##액으로
생활체육
물으셨습니다
번에
소리가
여성의
##방의
어울
##화되고
정부와
고려해
급증
조치가
도립
유전자
##기업을
##점으로
과기정통
제주도는
지적이
시설관리공단
관리법
이상은
되었는데
지닌
통지하여야
##기업이
종사하는
지정한
##요지
붉은
쉬운
목의
##자도
##돼야
해마다
규모를
성공적으로
설득
아이디어를
서초
올린
서서
지불
법원의
안전에
페이지입니다
가졌
서울의
##웠다
##채용
끝으로
부담금
책을
지원은
정책이
믿고
선물
결제
성과가
그들이
주민자치
##니까요
##지역으로
소개해
한계가
새겨
달라는
읍면
##중학교
어음
임신
구축하고
입고
##선은
##들로부터
용이
해당한다
당일
후기
기업은
예산결산특별
##었음
이루어지는
진행되는
체류
수립하고
등에게
##누리
테크
대면
개정된
##소한
##영향평가
바이어
##보호법
씨가
사업들이
무한
하나만
년도부터
날이
##주세요
했고요
명시이월
받기
##품의
형편
지역개발
작성한
사업비를
처음에는
국가는
여부에
등의으로
시민단체
개최하고
##사업자가
지난달
실시설
중요하다
수혜
인정을
안정적
될고
그분들이
문의하면
##나다
부산시가
완벽
##많은
입국
깨끗한
경유
확실히
전주
봉안
여섯
조사한
의결하고자
테스트
중간에
관련이
##인구
##예고
휴게
사업도
선조
가졌다
개최된
출장
이처럼
결정에
연구용역
있었다고
전체의
관계에
적용할
##보가
한계
역사를
이거를
필요는
방안이
누락
초과하는
##에다
장애인복지
한한다
말라
##신고를
자매
설명서
##임용
위원께서
##산업단지
조항에
형의
코리아
무시
뭐라고
세로
아시는
과학기술정보통신
정보공개
##대에서
팀장
수납
##양성
월이
구제역
노동자
##다니
예상되는
##실한
나옵니다
##직이
일하는
##법원에
성적
조회
관측
##사업소
오직
##AM
정화
전기차
만족도
부상
넣고
협의체
거절
총무과장
피고인이
승강
생기는
대한은
동서
이틀
우대
잠정
##메라
조금씩
전문성
##he
가능하도록
어려울
##하를
위헌
어렵습니다
##법으로
사업비가
명에게
사정을
회생
검토보고를
전했다
수신
부분들에
수출입
구비
업체를
##드러
사건의
도약
동시
특성에
축구
법원에
광명
##기업에
소중한
##겼다
중도
과정이
##하고도
나고
##스탄
고대
현상이
##필요
##당은
바라며
성장을
##센터에
도저히
여주
##종을
토목
원이며
선정하여
경기도지사
타인의
간단히
특강
두어
##길을
##사업소장
면밀히
예결
##펀드
멀리
하려는
##학대
나이
봐도
자원봉
종의
기여한
학교는
성인
시행할
방역수칙
금전
##음식
가능성을
필요하다는
전염병
##수익
위를
##봐야
##op
설명드리겠습니다
##공사에
낭비
##이버
예산집행
##다리
마련하여
##장에게
전체가
못했습니다
과거에
증액된
역할이
전제로
학계
의용
검역
##임금
##시켰다
##환경을
##페라
국가공무원
관해
##협정
##계산
##교실
메르
연구에
창원
방과
안녕하세요
뚜렷
##행위가
자연재해
환송
콘텐츠를
고맙습니다
확보하기
사무관
오셨
눈이
상표
##산화
되기를
##표시
수립을
의안번호
있는가
시행된
처음부터
고취
수해
도지사가
수많은
적에
거에
감정평가
역대
정규직
지적해
##항만
##예정
##회사는
클러스터
부적합
전문성을
환경에
개인적으로
주장을
솔직히
아세안
능력이
국가에서
얼굴을
같은데요
빌려
##문으로
일관
본청
축사
단체의
##당에서
개선이
혁명
도로를
부분입니다
관계로
국방부
##모를
방류
##임이
하수처리
어쩔
교정
재능
버리고
거를
고쳐
아니하면
확진자는
협상
집에서
##터를
공조
##서도
말할
##법인의
국장님이
확보하고
제자
제조제호의
무엇인지
예산도
교회
안전과
##됐다고
강연
군에서
지내
지방채
덧붙
대량
##시장의
고용노동부
기관을
영유아
절반
그렇다
##준다
재개
일문
##스는
##하면서도
##가정
떨어져
가능성
진행한다
그러고
마음에
##진료
정책과
아버지는
행한
환경오염
싶어서
##기관과
뛰어난
##복구
거치
많을
않아도
증설
##금리
원어
내게
해서는
제공하기
of
강좌
프로그램이
##지방법
진행하는
대부분이
##바이러스
받는다
운영위원회
생각하세요
국가보훈
여러분들이
개관
##퍼런
무안
건물이
##실장은
낮아
향상에
수행을
최신
아쉬
개최를
##물과
입을
친환경농업
반입
돼지
##교육과
이리
당사자가
구리
경우로서
##인원
##지며
##처분을
##업자가
전국에서
문화체육관광부
구성하여
건설교통
##법상
##라리
강화하기
저가
##하자면
주를
경연
신고하여야
의회에
##네시아
부부
무렵
상태를
신용보증
매출액
얻을
단일
한층
##목이
해남
보상금
생각됩니다
보아야
매주
하기를
창립
##출산
상한
조약
인사를
동쪽
강릉
생길
묻겠습니다
발음
이달
##실태
하나님의
##하지는
##ut
서울에
일어난
자라
##관계에
명확히
시효
페스티벌
당부드립니다
총력을
종합적인
##화되어
플러스
##임대주택
확보가
비율을
가꾸
체제
면역
학교급식
붕괴
납입
나가야
기업들이
해결하기
참여하고
활용하는
오신
사업자가
서양
중요하다고
맑은
사회에
아무것도
떨어진
##효율
잔여
수자원
뜻이
##문서
커뮤니
보건환경연구원장
추측
정무
그랬는데
제조의제항에
것들
의사진
예에
평생학습
효과적으로
행위가
무용
나라의
기증
폭발
이미지
공급을
행정자치부
보기에는
분장
오면
신청해
담고
##형에
화장실
스토
수습
교량
주관하는
지하수
측량
업무협약을
강화하는
의회사무처
##보육
흔들
전년대비
##외수입
도대체
대항
부진
실정입니다
풀어
단순한
위탁을
얘기예요
##시장은
식재
실현을
임진왜
경찰서
관련해서는
창출을
##받지
걸친
##체로
개회
민사소송법
내년에는
극대
건축물의
##방에
이름이
정신건강
자문을
음식물
대안을
육성에
##산이
것보다는
해가
합계
##화점
관계는
년마다
저당
반영해
있겠지만
기관과
이의를
함에
원칙적으로
고도화
소방방재
##었으나
블록
검토하고
규칙은
추진한
워낙
사용되는
화려
설치하여
혁신도시
퍼센트
국민들이
지위를
줄이기
##심의위원회
공판
끝났
##동기
축조
드리기
속개
되느냐
완도
일문일
본질
##설립
다운
의지
##벤션
받침
일문일답
회사에
살펴보
##되므로
##홍보
##본부장은
한미
없이는
동의안
한다든지
기술의
##대금
그래야
저지
유지하고
성격을
결핵
방어
등재
##대사
결성
되면서
##정책의
하는지
하에
전에는
곤충
북쪽
의회의
##령으로
##행사를
가사
보편
원가
과감
인민
##전환
신선
시설은
중재
##정보의
수반
질을
함양
불필요
제출된
추진계획
서쪽
재검토
##문과
상태가
김해
권한대행
##제한구역
##회복
인을
시대를
##무늬
국토의
어렵고
인력이
##서비스를
요구한
##공사에서
패션
노동조합
내용입니다
비로소
##객이
자체는
##었다는
것보다
가맹점
##시설은
소정의
지향
##의의
디자
mm
기기
조속히
써서
##학교를
창건
물러
걸어
집계
융복합
아니겠습니까
긴밀한
결코
안정을
여겨
##시대에
기금을
원의를
공연을
##수처리
단체가
##명한
신청에
변경하는
교실
주심
캠프
성분
용도로
신고한
##주와
짓는
사무처장
영산
LH
##관계가
잠깐만
모시고
들어와서
삭제한다
말소
도덕
노하우
증언
추진하기
제주특별자치
귀국
신청서를
변론
##업자는
원도
##소화
그렇습니까
제호까지의
판결요지
##부대
##초에
##폐기물
말씀하시
했습니까
##세는
하소서
내년도에
계약이
침수
협정
분위기를
크다
저의
상고인
뜻깊
역학조사
어머니는
분위기
소나무
로드
생각하
IM
친절
근로자의
##군과
하위
항소
식사
소유권
사이트
상공
##공학
내지는
봐요
근무하는
##이야
다를
사서
일으키
가해
소통을
대금
##요금
있게끔
개소가
한때
##드린다
들었
##형문화재
##소기업
해주시기
시군에
인도네시아
제장
콘서트
외래
개발제한구역
스페
인조
##경북
감안하여
훈련을
##문화를
공예
치안
날씨
##실시
이외에
종업
제도적
##년에
이번에는
문화유산
토론회
가득
판단은
제항까지의
초대
어긋
차가
돕기
하기로
배가
갖춰
임업
전임
별개
전항의
지나지
입양
부근
사무실
영구
다이
숙종
강화할
##쇼핑
명씩
이외의
##졌습니다
또다시
##방이
근본적인
##근로자
명의로
보여주는
##스의
독특
장사
##어넣
찾을
집합투자
##간다
##화한
세부적인
귀농
국악
비중이
영상을
없었던
대립
원고는
내국
감사하겠습니다
설계를
위해에
##산업을
자재
참석자
금융회사
보고하여야
##각을
초에
안의
##증이
판결을
듣는
아미
울산광역시
지위
증진을
어선
##사업자는
시행한
##계약의
흔히
##부품
시군에서
제조의제항제호
막기
##분권
동월
필요성을
##만은
표지
##영을
##어로
개정에
영조
외교부
치료를
활동이
##연합회
건수
사용자
구성원
아닌데
연습
##가락
담아
커피
동력
농업기술원
인문
입소
##ea
부산의
국장님께서
금융위원회
##칙을
도급
행하는
것이지요
개발이
##다란
부를
##경의
##영상
국도
##미터
##um
처리하는
법리를
당사자의
다양하게
전국의
재래
목적에
특색
##가로
##시켜서
미비
##하가
##끄러
행정기관
##님은
특별자치도지사
발생이
이루어지지
오전에
위원님께서는
##하자는
경고
생각입니다
맡고
저해
정보통신망
독점
조기에
바라겠습니다
기름
평창
휴식
묻는
지정하는
몸이
마감
듯한
마련됐다
개성
추진이
말하고
엄마
피고는
말씀하셨는데
국민들의
##능력을
사후관리
자영
미친
결정한
주민이
연평균
허락
두루
글을
기독
안정적으로
과천
시행될
##병을
##해지고
대학의
수행하기
군인
독려
##민원
한국전
새벽
##시장을
대원
남성
정해진
취지에
왕이
안건에
원까지
도시가스
##벨트
영암
특이
##업계
위원님의
변경에
경상북도
미래창조과학부
##역의
##화하여
##사업자의
부동산에
##왕의
##보수
함을
오랫
번호
##취득
지능형
##료는
등록된
느낌이
##지급
나타나는
이의신청
##과세
전남의
환승
##총회
사업소
번도
주식을
교육정책국장
결과적으로
끝나고
명품
시스템이
특별위원회
운영하여
AP
판정
##신용보증재단
비정규직
##나마
장래
미술관
분야를
왔는데
방문을
창조경제
수입이
##해충
중이
향상과
금액의
명단
##출을
##일의
법률을
판결에
모르겠지만
참석했다
##등은
전제
##호텔
피상고인
회관
갑니다
간이
신안
곳곳
요약
송부
교육생
됐고
##성년
내야
검정
예정으로
분뇨
파트너
이탈리아
조의
부임
농어업
##시지
발굴하고
지도를
맛있
지속가능
##역에서
##되었다는
승려
##료의
있었으나
국제기구
##도다
들어가고
도달
체육시설
조합원
선거관리
김치
올렸
현저
지원으로
신재생에너지
정부에
향토
단체에
상당하는
구멍
필요성
쉽지
주신다면
중점적으로
##재배
내어
음식점
노조
시일
미루
지주
영남
##림을
##외교
##리며
이후에는
IP
취지를
##질서
친족
세외수입
이외에도
개발하고
이럴
수석전문위원
대구경북
##대장
##용수
##아시아
기록이
양산
그거를
##하기에는
지원한
시설과
부득이한
개입
가속
##우기
행정을
먹거리
의용소방
확대할
바쁘
예산과
##증의
보호에
우리나라는
여건을
출원
드리고요
아닌가요
몰수
사람으로
##중의
##권자는
예치
상임위원회
##기본계획
단계로
철저하게
이르기까지
꿈을
나라를
상수도사업본부장
소를
것이고요
마침내
해야지
##물인
상품을
##하였거나
사항과
북한의
##끼리
##절감
근거로
간단한
##비율
환자의
##고의
시장을
정기적으로
조명
무엇보다
##지엄
##층의
정립
##청취
장흥
흡수
해임
탐방
보낸
마련할
##구로
있으신
양호
노숙
##자원을
St
열매
분을
작곡
환수
한국산업
했는
요청한
원활하게
수로
조직개편
옥외
재정경제
##환경보전
여러분이
소방시설
협업을
적정한
조직을
같음
다리
나타나고
한강사업
SK
배척
구의
건국
본인의
상태에
대표자
자로서
##석은
VR
실시했다
설치되어
왕의
뒤로
##실과
이루어져
소재지
짐작
그러는데
제출할
안동
되나요
식중독
##총괄
엄청나게
전자정부
철학
손에
일상생활
형사소송법
공유수면
##왔습니다
직원은
들이
헌신
##lo
부지를
미흡한
모양으로
##바로
기해
가족관계
##면으로
##올림픽
계셨
증가하는
없고요
직후
차를
나왔다
하를
부담하는
수시
장병
##발의
그러면서
정신을
##왕이
센터를
멘토링
보류
구호
##제도의
주민참여
갖게
여의
계통
##정원
목소리를
대기오염
통보를
앉아서
풍속
과목
장관의
회기
느끼고
##하라는
서울시민
상영
부분들
##체제
말하면
보건환경연구원
징수한다
본회의
지니고
관할하는
##선수
지장이
신청은
go
늘려
영업을
엑스포
장례
대두
계속적으로
작동
공사에
내놓
##교육국장
각기
도시계획국장
전남지역
가만히
이래서
고위공무원단에
실시해
여건이
정정
노력할
무단
도로가
감사드립니다
전문적인
만원
부산에
사건이
이익이
않다고
말씀입니다
세상
자손
취재
인원을
직위
억불
##테크노파크
감소한
실태를
##력에
##교육에
대비한
오랫동안
컨설팅을
##응하는
질서
신용카드
혼합
기록을
##수사
패소
왼쪽
##면에서
##설치
아트
예산안은
법무부
마디
##자면
키워
화상
아우
문헌
프리
준비하고
원리
세상을
##시에서
수요를
도시의
폭넓
대충
##산성
파기하고
조성하고
슬로
##업체가
세액
압수
확인한
제공한다
이유에
상주
금년에는
설명하고
##상환
되길
가이드라인
막대한
##가지
##도에서
지역과
##고등
추모
다채
만드
손으로
연결하는
동작
개선해
중동
너는
구성을
##미디어
승낙
예방하기
복귀
불가피한
이을
파손
적용된다
##ity
저조
안건을
달아
집행잔액
겪는
수행하고
고교
##교육원
인성
상습
받거나
##산업진흥
명사
##물품
정서
민간투자
KO
말씀에
알리는
하이
##베이스
개선과
해야만
기온
ES
계신고
그릇
개발한
진출을
여러분은
소송대리인
##드리면서
냄새
##id
후손
관점에서
가계
식량
대도시
생각도
##움이
확실하게
구하는
##구와
의견으로
##포장
운영의
##전과
드리면서
해결할
성공적인
참석해
인구가
미치지
물량
하시면
##시피
했습니다만
읽어
증상
##권자가
직원들의
행사할
##하느냐
##행위로
기숙
##사기
##아리
표본
안으로
대비하여
그을
시작된
응급의료
사회적기업
동계
세계적으로
지방행정
고맙겠습니다
##od
관광지
아끼지
##기간은
정비를
##레저
저출산
도망
요구에
##바닥
해방
살피
좋아요
가진다
차등
##인사
많아요
근본적으로
수십
보였다
내리
겨우
의견청취
평년
연말까지
상태입니다
협력하여
제한을
고을
##유의
OEC
해운대
요구가
보물
##과정에서
##상황을
확보할
비용의
소방안전
필요합니다
결손
못해
보았다
없으니까
제도는
##라스틱
심한
대강
검은
천만원
정례회
무리
질의와
훌륭한
전승
직원을
클라우드
것이나
저축
전환을
서귀
의장님
수단
##조직법
땅에
일도
날을
같아
보도록
중추
나왔습니다
석탑
##사업과
한꺼
써야
충청남도
모래
상을
아들이
기업인
교육협력
시정을
이력
유인물을
태국
출하
하나하나
고려한
물품을
싱가
선행
##았을
일종의
장기간
공보관
느끼는
불합리한
판단하고
체육회
통지를
선정하고
자리가
##마를
시민과
에이
시작을
진행됐다
만명
소멸시효
국내에서
업체는
희망을
##난을
많아서
공공시설
##제도를
사고이월
지급한
효율성을
원칙을
고성
유명한
주었다
계세요
##휴양
마련에
호흡기
힐링
화학물질
##업자의
장님
오리
개인이
##세서
용산
기대됨
위성
넘겨
관리할
##대상자
동양
##처분의
한꺼번에
시기를
연중
오르
인이
술을
규제를
식품의약품안전처
되잖아요
예우
##로그
분배
##파의
줄이고
발족
모으
##방식
##시설공단
기장
추적
생애
행자
인사말
##고한
효과적인
##진이
그로
업체의
마주
말한
포천시
단계에
민원을
보일
춘천
기업체
OECD
직접적인
전라도
##포르
##생명
공간이
##가공
##윤리
영향이
보십시오
마치도록
인용한
사업들을
계수
동해
하남
추정된다
충돌
##화할
나오면
품질관리
속에서도
차라리
하루에
아카데미
지원국장
공급하는
보시를
주어야
탄핵
##취약
오른쪽
휴양
도시기반
대동
##지도록
조건으로
다하고
교육장
공용
법적으로
대응하기
##기자
응모
탄력
가락
정보시스템
정규
환자가
##정으로
안타까
해체
제항과
##에게도
전출
신청하는
밝힌
차관은
음주
##루를
법인이
가능하며
이룬
추가경
박물
##선거관리위원회
원이고
조그
상설
창고
##구에서
##드림
##조리
성남시
받으면
삼고
총장
이름으로
콜센터
##되자
달에
진주
재무국장
했었는데
##차례
##거리를
기획재정
상세한
##연의
계곡
봤는데
##경이
올리고
##인권
서귀포
주변의
##조성
원상
기록되어
밖으로
설치가
메르스
사모
위치를
요청에
경우와
부담으로
##ter
##련의
##지방법원
##종이
##하셔야
개선하고
독거
##력은
임진왜란
IC
##전에는
불복
도민들의
##이라서
행사로
매개
있었기
말하자면
##ul
출시
정해져
##수단
길게
파리
계획하고
위원님께
##계획이
중순
마련한
##돼지
심화
조성하는
커다란
우리도
의혹
계십니다
나은
인삼
피고인의
문화재청
육군
타이
아니기
교류를
##리티
제조제항제호를
접촉자
위원도
영원
##주식
보호하기
대대
예정인
않지만
프로그램은
신규로
##졌고
한쪽
##었기
##생이
인턴
준비가
옷을
##느라고
투자자
이르기를
가면서
홈페이지에
감염병의
적지
홍콩
전라북도
구조를
고흥
몰라
##안내
##보에
##하우스
경제진흥
##위원은
준용하는
골목
심지어
##재활
건강을
경남도는
경기장
검토하여
안이
본예산에
사항으로
선사
##라이
근처
장관에게
추천을
##견이
알기
난방
모델을
그때는
##심에
말미
##취업
의석을
##플랜
위탁할
##회담
벤처기업
##세포
아래와
교장선생
제외하고
남양주
이메
갖추어
##여금
제조와
##가입
안고
임기는
묻고
형태를
애로사항
중이며
적격
하든지
##연히
##본부에서
소방서장
##냐고
있어서도
보도자료
물에
직무대행
총회
##드리며
재산의
사회서비스
올해도
화가
인체
에어
전망이다
카메라
##재산의
구분하여
in
금리
##과장입니다
나오지
외국어
##인도
씨의
확보에
##발전을
주년을
대회를
기술적
자생
##드리면
요청이
학교폭력
필리
제항에서
대상에
두었다
##지인
단계별
있었음
전문가가
추진하여
##됨으로써
##됐으며
현대화
삼아
##령이
모르지만
계획이라고
에도
무려
유류
##자고
올해부터
정착을
처리할
##니와
일주
##루션
##기관에서
급속
##들에게는
##단체의
아동학대
##봤습니다
##조선
최소한의
부위원장님
입장이
채무자
오지
헌법재판소
수준이
늦게
판교
사랑하는
##분류
뒤를
신청하면
접목
구성이
재택
복제
확대하는
##채를
레저
차질이
##지사는
##일로
##지니어
진행된
##겠지요
목적은
상상
장소에
##기보다는
담당관
도자
예시
신종
##받았다
적극적
##유를
않겠나
무서
의사가
이용자의
잔류
##회사에
##하죠
관리와
견인
##급을
재정비
기관에서
서울에서
제공해
다스
있음에도
연출
##ur
##유예
있나
궁금한
##형태
서비스의
그녀
알려진
자격증
정보가
서울시는
일반직공무원
함유
거쳐야
일찍이
되다
기본계획을
반영할
저술
촉진을
의미에서
로마
예산현
발열
임직
##대회를
계시죠
권한이
구조조정
수색
실질적
오페라
예산담당관
##십사
승용차
기도
행정관리
지정할
재고
##기술의
쓰지
정돈해
추진과
원칙으로
##트롤
##연맹
거라
높다
때에도
토요일
일일
무상으로
중심이
##인들은
귀중한
군이
있는바
상기
사망한
대국민
##촉진법
됐어요
붙어
##직에
##직업
순위
학과
법리오
##겠음
시키고
열린다
한옥
##발을
다릅니다
데리고
유학
독특한
생략하고
회사는
도시환경
침입
활용하고
국민안전처
양반
경보
브라
직원들
전라남도가
정원이
임상시험
##실습
경전
##리니
줄일
##금속
않는다고
개최된다
기재한
유일한
헬스
측면이
학생들
##문화재단
종류의
있겠습니까
호소
검토의
밀접한
아니라는
##식물
LG
불확
좋은데
사회를
계약의
이분들이
다니는
추가경정예산
##전지
입법예고
음식을
효율성
전략을
비닐
국제적
한국어
일부는
부서에
##심한
케이
##론을
놀라
기각한다
도교육청
전부터
국민안전
전국에
시달
몽골
가지고는
판매하는
생성
##IC
##소시
##료가
국가유공자
시행일부터
심포
접수된
방문한
##처벌
임야
국민건강
이해할
##결을
갱신
자와
늘어나고
##생의
운영은
합리적
되었으며
CE
불을
교육청이
특징을
과실
국고보조금
진정한
##지역에서
싱가포르
##케이션
수긍
##케어
무관
은혜
우리를
##안에서
천주
거기가
수주
시와
##공고
투자가
개인적인
국적
인과
페이지를
단장
여기에는
하반기에
위원을
가격을
따라야
실효성
바닷
지정하여
화엄
판결한다
사랑의
##화폐
시의원
농기계
별정
고부가
매달
캐나다
선제적으로
편리하게
다음의
담양
##특구
마이크
기독교
상당의
혁신을
여비
필요하지
##셨으면
숫자가
##망이
한마디
관할구역
자진
나타내는
##수목
농업기술센터
그전에
##치의
각별한
##에에
제조까지의
미성년
##교육이
부교육감
대구의
상임위
장소를
질의하시기
대통령이
이념
의제
이하로
동경
선착
밝히
비율은
형제
적용되는
##신은
않겠습니까
##규정을
하였는데
고품질
만남
연구결과
##께서도
작품은
##관광공사
취약한
문화적
필리핀
남의
교통건설
자극
##보도
전일대비
##량에
국비가
했는지
저를
개최하는
##주신
##ot
수립하여
##검찰
단서에
하거든요
학생들을
대해서만
맞죠
##시행령
고개를
규명
적어
제호부터
##질이
활발한
과학기술정보통신부
##였고
양자
활약
##법과
도입을
법원이
##ir
이루어져야
근무를
검사의
연도별
모습으로
모의
있었을
##무덤
되었다고
##해진
현저히
원활히
동포
행정부
말도
크기
점으로
AS
회의실
석탄
조경
설명했다
과도한
##배출
포털
직업훈련
교직원
촉진하기
자기들이
##당시
식품위생
이혼
##특별회계
보다는
##부담금
##자에게는
강화에
전적으로
##BC
빼앗
구청에서
사령
왔던
##다보
착오
금융위원회는
전문가의
사료됩니다
많기
도의원
회의가
사망자
인센티브를
회부
##DP
전문가를
보내어
성실하게
시민을
학력
사실에
공탁
남겨
##EA
무늬
직계
##인정
레이
##개선을
위원장님과
업무는
##정리
파급
나섰다
위축
사유에
육상
중견기업
주의를
상세히
사업자의
변경이
##사실
모습이
##매입
꼼꼼
규정하는
단가
##호우
의사표
저항
문제입니다
견해를
즉위
마음으로
체제를
##네스코
아마도
모양의
인의
입상
이해하고
##정보시스템
##업체의
변경된
출연금
베이
바람에
##사한
무너
질문에
금연
##볼게요
구청장에게
첨부하여
CO
처분에
##NG
패널
양쪽
##ay
간주
누계
무대
오늘의
적극행정
지식경제부
대비해서
부르는
##겁니다
농경
자원순환
시기가
맞추어
확대하여
채소
담당하고
사랑을
정원은
지적하는
##인인
구성하고
숫자
해당하지
동일하게
보건환경연구
편성이
도시계획시설
직전
늘어났
증원
끊임
보완을
에너
협력해
##테이너
많았습니다
##의는
현존
어디까지
지적한
끝나는
의지가
향해
독립운동
어떨
##마케팅
직불
국토해양부장관
논리
원인데
도축
행정심판
m의
집중호우
느낌을
북한이
##시간을
교육청의
갈라
##품종
마련했다
능동
##영화
산회를
재정적
표현을
자격이
도로의
수성
관계부처
##주체
애로사항을
핀테크
시행계획
##요구
추진될
집행부에서
갈아
불리는
##소시엄
##교수
경기도민
다자
따랐다
조성과
고사
시켰
건설을
##주면
##실장님
제시한
##역사
평가하고
##들과의
뽑아
푸드
부작용
##분양
인데
영향으로
원고에게
##플레이
일부가
집으로
주류
조성된
증상이
좌석
침체
불용액이
긍정적인
서울대학교
프로그램으로
사법경찰
협조해
##함은
연계를
기재된
논란이
응용
가족의
연방
상고이유를
환기
회피
##제작
##만족
날인
일곱
경제의
회복을
##기관인
할아버
복지여성
의회가
해소하기
일치된
동행
평가에
일일이
휴가
변경할
오래된
유네스코
가압
##민족
##우스
보라
줄이
판단한
철회
간다
흡연
적정성
관련되는
혈액
개선방안
갯벌
계속되는
본의
계량
지방공
반출
##찰을
단계적으로
##으려고
형태가
의약
##디아
적자
##두에
내세
유연
결정하는
##퍼런스
태평양
##보기
개원
부양
발견된
정원을
방재
탄생
조선의
홈페이지를
##스톱
여성가족부
부분인데
신임
국가에
개장
해를
검토해서
벤치
##매김
새로이
재단법인
항에
수요에
##시장이
배송
포항
사회주의
줄을
대회의
쉼터
채무를
자리매김
페이지가
성균
여기가
##시켜야
##되기도
됐든
수수료를
##운전
있으면서
말씀드렸지만
업무보고에
한인
항의
끌고
조항을
제시하고
국공
##과정을
시장에
여지가
데이터베이스
초등학생
##공예
DB
청소년의
식민
글씨
직원의
비서
듣도록
##주의를
우호
위주의
과일
연구가
##지표
아니잖아요
설치해
이로써
주셨는데
농정국장
조에
제호를
승객
민족의
##주차장
##정책에
표준화
축산산림
주문과
서비스업
SOC
간격
지원하여
##농업기술
종묘
세금을
내려가
특혜
양성을
지자체가
##하였음을
야기
##단에서
대화를
지났
그저
지가
될지
환경이
민간단체
계획안
자원을
충실히
요인이
지장
지방의회
판단됩니다
어른
공원녹지
IMF
이해해
속개하겠습니다
과기정통부
지침을
거짓으로
##의료원
##터넷
재판을
배우자
건물에
목조
협의하여야
작년도
팀이
공소외
안타깝
마찬가지입니다
특구
##문화의
산업단
##판이
소외계층
체결하고
장시간
성격이
##이득
##수련
##림이
##신라
세워서
알선
소비자의
##수리
임무를
유산
부분으로
송도
거니까
참전
표시를
화약
가능할
둘레
##해가
혼란
있네요
이루어졌다
시중
기탁
확인이
주시길
찾기
의학
기가
하지는
##력으로
광역시장
##기간의
권리가
전문가들이
경비를
버섯
기정예산
하므로
것하고
##정보화
##연도의
구두
##반응
##상위
행정구역
한참
우리나라에서
후의
##중인
한의
내부적으로
저수
사실과
문화예술
노원
커뮤니티
강화와
##전화
업무와
합산
계약서
##답니다
요청하는
파악이
읍면동
원보다
##보고를
처장
바른
##잖아
주인공
의원입니다
등산
잡은
컨소시엄
##출자
조심
특정한
그야말로
동맹
자기네
계실
##지역은
플라스틱
늦어
만들었다
##팀을
가금
범한
##지는데
부설
행안부
이용객
일반직
유인물로
심사위원
대위
##종합지원센터
##법규
명에서
애국
취업지원
도지사에게
##권도
주관으로
##취소
정보제공
하라고
복지건강
원인을
짧게
했었습니다
조치는
공주
인허가
##패를
대리인
행위로
배를
세제
지방정부
온라인으로
기와
##하야
있어서의
##업무에
참고하여
여러분들
##의정
##비용은
불상
방위사업
등록한
공공데이터
받아들여
상급
##투어
광업
빼고
진행해
한류
일체
아침에
##변을
##부동산
##들고
채권자
별다른
입점
올리는
캠페인을
세상에
예산결산특별위원회
순차
불필요한
아미타
모순
##품이
##스트라
거냐
##기간에
유니
##색이
마련하는
시급한
정부조직법
##박한
분들도
##연료
질의가
법률이
수익을
일정을
사본
면적이
교육위원회
유무
로서
실제적으로
제품이
의원의
취지로
유형문화재
발표를
기념식
##노라
보수를
라디오
힘써
##로도
합리적으로
##르기
쇼핑몰
킨텍
##ab
보호하고
저희한테
보고한
산하기
집적
이기
가요
분에
재심
##형은
기반의
늘어나는
도로관리
건설공사
일입니다
##스포츠
##칙에
선제적
품사
누설
맡은
##분쟁
##터미널
가능합니다
발굴해
교역
면세
산입
농가에
실시설계
차례에
실시를
스트레스
되지만
박람
기능성
도민들이
금방
##외의
경제투자관리
답을
문제을
##합동
컨트롤
법령에서
가칭
그리하여
지역구
개최할
사무총장
보건복지부령으로
하죠
필요하면
한국농
사무국장
유기농
대륙
치고
제수
추징
따라서는
위원님도
신이
평가가
직종
생육
파생
경미한
가족여성
경우에만
제안설명해
세션
현황과
상식
구성해
속도
시나
종로
맞는다고
집회
아니죠
##농장
##주시고
가급적
스마트시티
##박람
구청장이
나쁜
원스톱
경사
도시주택실장
조작
공부를
자원봉사자
##음의
쌓아
조달청
지구단위
##욕장
아니지
##고속도로
되지요
##질문
이루는
##분과
처방
속한
뮤지
##게임
손상
설명이
끝내
넷째
동북아
입안
서울시에
제기한
LED
사업내용
도시교통본부장
일어나는
##군요
청약
중앙에
##벤처기업
것임을
희귀
##주사
학문
트렌
대웅
조정이
위원님께서도
한계를
한방
##TO
협의해서
탑승
##마크
심포지엄
환경보전
선원
감사원
조사가
성수
외국의
합성
책은
기관으로
##교가
조화
양성평등
##공간을
넘어서
내역은
##서울
달성하기
온천
학생의
##oT
의견은
진동
경우로
생산하는
##비용을
특별시장
수요자
진행되며
급제
보내는
청구에
오케
혼잡
법률조항
깨달
신뢰를
확보하는
전월
##하에서
차고
##미가
복리
학생을
낮추
##석으로
대표는
외식
##름을
장애인의
없으나
##측정
##관서
공상
장학금
보시고
이후의
이조
##여래
대만
대표이
승격
사용에
시사
장차
보냈
##체인
편이
간편
적당
포인트
사방
##간을
학기
##세액
보내고
부담한다
##장소
규정되어
##이와
블루
설문조사
##DA
##원인
화순
거가
더욱더
투기
남용
##위기
거다
##시설과
검사는
나타났음
부서가
인프라를
축적
결정된
대응할
##적이다
시작하였다
국가적
고장
해설
##과로
없거나
낙후
서울특별시장
연체
부당이득
제조제항에서
등기를
유공자
양측
만들어야
바람직한
갖도록
강하게
사진을
##시설로
이미지를
##동향
예방에
확보해
부분과
원장은
제청
쪽부터
준비해
연합회
아르
혐의
도로교통
정상적인
예탁
기관별
##날인
사무소
예는
따져
##ag
태종
##었지만
##스토
취할
차에
기여하고
테크노
군은
문화가
##자들을
알려야
##불을
현황은
여태
나가기로
##MS
현황에
##받았
유래
사회보장
네덜
시험을
##구청
국비를
예산절감
줘서
포함이
##주시면
알아야
##카오
컨테이너
확대에
자본시장과
##환경보전법
요인
모르겠는데
개별적으로
증빙
##님들이
과학적
파일
사업설명
않는다는
##계좌
통학
확충을
통일신라
##마저
제어
종결을
상관없이
지고
부지에
주장은
설립을
##청년
##후에
##석에
마루
밖에서
인제
프로그램에
세정
위반행위를
생명을
##캠프
미터
##ri
##함으로
식생활
출품
불가능한
위기를
##임에도
직영
시행당시
접종을
떨어지는
경성
병조
내년부터
거느
바라고
당시에는
돌아오
감사에
##본부의
##자금을
과세표준
회원국
##십자
있었다는
찾고
우승
즐거
노력하여야
공간으로
수량
##검진
피아
##달라고
대비해
생산자
##점의
##색으로
##바이오
권리의
증가에
개정이
동호
제기할
중요하지만
##화국
뛰어나
제주특별자치도는
기자재
결정할
소비자가
가정의
##피스
관련돼서
시작했다
살려
차량을
백화점
설치에
생각하지
순조
##수해
성을
직접적으로
사직
교육장님
##분들이
##죄의
다시는
전하
모집한다
하여서는
양해를
맡아
싶어요
중에서도
특수한
얻고
단계에서
체험을
답답
##다든지
위험을
##되었기
##위와
조성하기
직거래
팀을
##내기
##art
스크
##로로
확인하는
##지니어링
극히
전체에
국가보훈처
경작
네만
약속을
택배
##토를
반영하고
##균형
중으로
보낼
언제든지
조직이
환경부장관은
분야로
청계
##변에
줍니다
IoT
AR
바로잡
한한
재생에너지
내린
건설국장
남산
사고를
본다면
동조제항
생산성
자유무역
마스터
호응을
서비스가
석면
##한다든지
시행하여야
없죠
조례의
네트워크를
##치로
보호구역
부수
바라보
##보존
공지
사용이
단백
신천
##요령
##음으로
줄어든
대회는
내용도
##판에
일산
편익
안심하고
경제자유구역
면이
로드맵
드는데
일본에
출처
식품안전
참석하여
##종사
각계
승인의
범위에
개정되기
##사이
적고
끝나면
이름은
집행잔액이
하나님이
결과로
##강을
비축
출근
확실한
##마켓
뜻으로
컬러
아시겠지만
증명하는
이거예요
##등록을
강요
의향
상권
됐을
적용하여
##리에서
##해질
##평을
미만의
나뉘
지극
피난
못하였다
##응답
포함되어야
대구시와
도시국장
노고에
최종적으로
국채
들어올
소개를
##합의
텔레
취득세
원형
알았습니다
##관장
##하는지
##위반
날로
##됐고
입주자
국민과
개방형
유공
정면
그쪽에
접경
양도소득
태어나
되겠다는
소모
경향이
행정의
즉각
마련된
있기를
산업을
##선박
무게
인천시는
몰라도
응원
시간은
한성
예산안을
주민등록번호
과수
흐르는
##류는
생활환경
권역별
심사한
말미암
고인
금액에
의도
확대와
내보
##석의
농작물
주택을
천백만
대성
비싸
문제와
용지
초빙
##길이
##주의의
점심
나무를
##실적을
기업들의
방식이
자유를
한일
##색의
다목적
구로
아름답
진행했다
사유는
산단
정당하고
유지를
학생들에게
제품은
##시장에
전당
보한다
프린
발명
사업비는
##계약에
당나라
포스터
##복무
##지수
가난
보호법
##운드
사천
정상적으로
##보고서
문제의
건강증진
##전기
말해서
사업주
동래
형벌
공감을
계획과
부도
의용소방대
비교해
건데요
보자
##현실
##린이
단체를
진상
##기사
수행에
기쁘
요령
있었어요
취지는
발표했다
싶어
##선과
드림
피해자의
##킴이
##랑이
강수
이어지는
개선할
예상된다
분야별로
지정이
##드렸
인사혁신
사람들에게
그들
##방향을
##학교에
기술과
지을
신흥
어우
장으로
오산시
##차에
창설
##절을
하셨어요
확인된
불이익을
한정한다
일이다
세계적
아래에
남는
##자리에
제한하는
어렵다고
있을까
드라마
##전문가
다르다
사람으로서
감히
##요양
대다
##성적
그리스도
사회복지시설
보고드리도록
공을
해소하고
##조는
피청구
약간의
치과
네덜란드
가족이
인원은
광범위
상소
서포
홍보하고
어지
두려워
##이라고도
지질
##산단
마음대로
대책에
토기
되었을
때를
검토한
소송을
활성화와
제공한
병해충
##석기
수원시
##건물
달하는
밝히고
산사태
당뇨
신라의
세무서
인기
소아
함께한
추출
세웠다
##생태계
요리
발언을
노무
구독
##병이
센터는
장마
보사
##마한
기후환경
기이
연말에
소개하고
미군
##자들
장성
구축하여
##교는
문예
##줍니다
개소의
곳이다
마스크를
##명으로
가끔
억으로
국회에
있어도
복지부
물관리
금융투자업에
살짝
친환경농산물
유념
설계변경
뉴타운
전부를
미칠
운영지원
##센터와
표창을
내용들이
양파
배추
##경로
말하며
스위
도모하기
이것으로
적법한
##숙한
##발표
계약에
방향에
기대를
분도
영등
예조
##내역을
한국인
강북
용적
어두
개발하는
신한
달성을
시에서는
검사가
마포
여호와의
장수
선진국
투쟁
##림의
많으십니다
순서입니다
있었지만
##일은
국내에
전략적
##일로부터
산학협력
종합하여
체계적
강력하게
##해지는
아빠
어렵게
##술을
판매를
경제성
금액으로
동지
캠핑
앞으로의
제도에
실종
보며
하는데요
##세로
##직한
너희가
##과장님
취업을
되어있
유휴
원인으로
시설관리
도민이
##전으로
##거를
개인정보를
패키
마련하기
정책적
선정해
서북
안전행정부장관
가라
##진흥법
설립에
우리나라에
못했다
##나고
돈은
목숨
##학교의
보면은
제조의제항의
##ci
##경과
공문
##날레
실로
합의를
자율적으로
하나인
표시하는
시설비
지금이
빠진
##하였으니
농축
여성정책
조직과
국토해양부장관은
##시고요
도시철도공사
슈퍼
누군
막을
자연스럽게
거을
아리
##화문
그래서도
일의
개축
복잡한
태극
시를
한강사업본부장
고통을
##자연
소유권을
수돗물
의사진행
위기에
지형
##였음
구분에
자신을
이따
행복도시
전부다
중입니다
##이든
마약류
신도
시킬
##달라
초기에
재가
##되던
초과하여
##산업진흥원
교통건설국장
세분
방문객
분들을
구인
무더
도에서는
국민에게
##공을
기획관
명시된
보고드린
되겠죠
손실을
됐다고
선전
임면
공작
직결
위치에
캠퍼스
주최하고
주무관
청주
조류인
개칭
판단할
근육
시행으로
조형
과정은
명이다
것이요
##됐던
##받게
취지의
중소벤처기업
방사선
한중
##달을
청문
학사
투입해
거리가
##었으면
##주거
없잖아요
위원장을
##보조금
채권의
경기도시
##인민
모르겠
##사지
뭐예요
정관으로
취소된
방송통신위원회
##진로
봐서는
##차는
소수
보고가
##쪼록
위조
출입국
그거에
부녀
좋아하는
계시고
저하
결격
표면
조용
권한의
##선택
지시를
방문하는
온도
교육청에
기획행정
바꾼
나선다
마늘
생생
판촉
##진의
홍수
##리다
제항에도
클래
항목을
살균
특히나
##사람
##증법
##셨어요
##항을
케이블
못하여
일방적으로
대책은
보조금을
광산
##버넌
아직은
사례는
간선
발전시켜
##치에
상반기에
개선하기
나오는데
후에도
##종은
신장
경기개발
호와
회를
업무추진비
##결제
심층
위치는
이야기입니다
##첨단
긴밀히
제품에
가는데
제점에
##중앙회
##인들
##정책관은
##절기
##ia
##인적
소급
논문
##후의
선정이
비디오
사안에
설치는
편성된
##승인을
한에
##청장에게
모양을
한양
들었다
국민연금
집행부의
##했는지
##지역이
가기
##운영비
철강
의료급여
중수
지는
취소할
덜어
방안도
고문
새해
##였는데
이용해서
여러분께서는
제출하면
마인
관객
찾아볼
중립
##했다가
##결정을
구축해
공문을
자매결
업소
작물
표명
산지전용
함경
지급하고
입체
감안해서
분석한
분당
검토할
지적하고
얘기해
대관
베풀
구미
센터가
##해졌다
마이스
어려우
건수가
지키는
얼마든지
##est
사헌
수준에
한국은행
신약
몰랐
##르크
정년
동산
##터널
구할
의욕
##os
이들의
적용하는
##로에
내진
##강점
공사비
##농협
##밸리
질적
정신적
메시
묘사
직속
발굴을
천안
##레이드
##효과가
칭찬
##능력이
각별히
호적
있으십니까
못합니다
교육감님
남해
이전의
요새
##아이
##롭고
##구성
한국과
테니까
경제활동
이후에도
추가적으로
국가기관
법적인
예방과
경우의
강화하여
여만
명나라
제출하지
##사인
화면
뜻은
분장한다
국무조정
광역교통
대구시가
주민과
행정안전부장관
일제강점
년간의
개체
##엔날레
부동산을
국가를
비중을
바꾸는
방사성
성실히
생활권
따르지
드릴게요
패러
세종문화
##돌이
생산을
아이들
견학
평가는
##사이트
의문
정통
입찰을
자체에
올릴
필요하고
##화학물질
경우은
##러진
적용에
명확한
민감
제항제호의
서해
주행
##하셨는데
판결이
땅이
##트가
아무도
진화
IS
간소화
걸려
##례가
제안한
##협의체
들어요
경제를
북구
명하여
카카오
저탄소
신속하고
투명성
보시는
다채로운
불용액
기타의
##보증금
만날
##전에서
친화
방법과
배양
좋다고
##기획실장
말이지요
객관적으로
상계
정원에
인플루엔자
##이게
실장
도로법
재산에
저렴한
##만으로는
물어보
자회사
싶은데
조정에
##소독
편의시설
컨벤션
##을을
이곳에
이야기는
앞서서
##동으로
##일까지
국제회의
촉진법
주식의
강도
##관서의
채권을
정주
추진되고
참으로
활발하게
일어났
무허가
추진하겠습니다
총액
##협력을
반영될
##우미
밝은
회사를
소지가
이에서
확산에
세기에
##중소기업
번을
곤란한
못해서
운영으로
상응하는
집행하는
##설정
선정됐다
인재를
로부터
부당하게
진흥에
고부가가치
가보
개정으로
뉴욕
몸에
우체
않았고
불리
보여주고
도지사의
명도
성장할
기울이고
FA
지냈다
##경보
조사는
했습니다마는
차량이
##학기
활력
조건이
##셨는데
해당한다고
혜택이
오른손
##용을
년은
교재
촉진에
##출원
언론에
뮤지컬
예고
해결이
연계해
##NA
인정하고
##치기
중독
##되었다가
참가한
##실험
##ers
놓여
쓰이는
우리에게
증명서
부산시에서
석가
소셜
어디로
하나씩
감사가
증가로
선착순
사설
학업
실태조사를
##연습
처분의
지방도
발언대로
이양
분야가
##과가
뭔지
##학회
##og
그러냐
받았고
##조류
선정할
남동
광장
##당과
언제까지
임산
편리한
해결하는
범위는
신성장
제공하여
비롯해서
당신이
궁극
각자
공무원에
기록한
년째
대청
날에
전철
라이
인건비가
법으로
##지휘
##드려
생기고
제님
통화
의왕
합니다만
됐으면
나와야
기금은
모니터링을
##지식
자부담
포도
산악
줄이는
고소
##본부가
휴업
연수를
거버넌
직권으로
구에서
거리를
##용역을
제항제호에
위원장님을
##도매
상류
들고요
여권
기초로
목판
받았는데
콘크
회계연도
공무원과
지역별로
##맞은
여부는
할머니
지방에
터미널
문양
활동과
제작한
비하여
놓는
메디
시기는
공청회
횡단
구축에
##저감
받아들일
취하고
부동산의
영등포
정조
영혼
##권자의
시인
##참가
회담
##의식
질의는
쉽고
##각이
대상에서
쏟아
협의한
연꽃
양이
피고에게
방송통신위원회는
왔으며
송파
서울시립
자연환경
개정안을
장기적으로
전문인력
정보통신서비스
근로기준
##이니까
고기
##농정
##조문
가지의
##지라
##and
고등학생
맞이하여
지자체와
잇도록
##병원성
소론
아니하여
선별검사
마쳤
언제나
하부
개선하는
##법인이
찾아서
번의
교육과정을
이해와
조합의
정보는
##교육과장
필지
특례법
형을
불이
##계약이
부응
지도자
##사유가
그림을
채무자가
국장은
충원
군을
가능하면
않다는
##사고를
보건의료
##해지
시설로
##채널
##여야
##개발원
##수출
곳의
##업체를
행동을
##장려
가능함
우려되는
방한
점도
상세하게
##됐는데
설명회를
##과제를
교통방송
사단법인
##경은
클럽
건물은
##정책과장은
##인력을
대상자를
가족과
맞은
부스
이사장은
공신
조속한
발사
생명과
에코
교육기관
전문가로
##연구기관
많다는
학대
환경영향평가
##됐음
##업체에
지나치게
새끼
##시설물
기간제
처리가
고무
지급한다
##집단
연일
폭행
진행하도록
시작하여
명이나
행하여
대학원
걱정이
우회
##곡을
보여주
추진현황
이겁니다
시점에서
##목은
유독
문화관광
양식을
선거에
맡겨
환경부령으로
경쟁을
자동차의
기업으로
우울
들어가야
모르겠습니다만
##도시공사
좋게
존재하는
인터뷰
##농업인
이르고
##보험법
포함하는
죽을
조건에
##상부
방사능
활력을
한국토지
출현
지속적
##셨습니다
소유의
갖는다
##마킹
지자체의
할지라도
위해로
참석을
##업법
외곽
대통령의
감상
시세
시켜서
##경제자유구역
##향악
국유재산법
청년들이
드려
##PS
심어
끝이
최소화하기
속의
메뉴
해결해
임원의
이메일
의무적으로
휴대폰
점수를
행위의
보신
이하는
##un
많다고
봄철
살펴볼
못을
홍보에
##수증
이전을
내려오
시위
킨텍스
불법행위
예찰
수출상담
어떻게든
인명피해
기운
철새
국민적
국무회의
계란
조금만
면적은
화해
##우편
사업자는
구체화
미루어
합창
문체
##증명서
계기
동거
##업무의
단정
##진출
시행되는
여신
수호
교수는
들려
준용되는
재산권
for
태어
대에
구름
네이버
벤치마킹
최근에는
공공의
조업
올라와
귀족
일명
##선언
사내
행정절차
부족으로
평상
행정적
##손해
마라
필요에
##막이
중계
사회가
뭐냐면
문서를
발전의
##교환
##화장
시민에게
법령을
내수
보았
개최한다고
보호관찰
지침에
보임
튼튼
호조
아무쪼록
않았던
단단
##검역
아랫
##이거나
##안보
얻는
이사회의
다카
의료원
##im
##택시
추억
들어가면
식의
##로지
빈번
천재
밀착
##피아
개조
작품으로
발굴하여
세울
선박의
전화를
조치에
시키는
그리고는
포용
##에서만
성벽
모금
부산이
둥근
개발해
어미
민간의
호국
신발
제시하는
발행한
감찰
소득세
##감과
일요일
다음에는
소통과
학생은
라인
##th
유형별
##교육은
작품이
둘러싸
경로당
기생
대하여도
하시는데
##었고요
인력의
국세청
##구간
##낸다
중남
개최한
책무
수질오염
경제투자관리실장
거수로
이러는
##느니라
전지
줄기
연봉
##회사를
화재가
지나면
중기부
선거구
##납부
의견에
개표
침략
##하거든요
완료된
지원도
반영된
골프장
국립공원
위험요
##하였으므로
학회
미안
중요합니다
참가자
강조하고
대덕
##RA
오염물질
동대문
어서
동남아
우리나라가
접근성
수립에
어업인
부의장
고추
잘못이
플레이
투어
없으니
안건은
될까요
향후에
단말
##RT
뭐를
페이
지방공기업
시점에
미만인
유언
조례는
##훈련을
경제가
많았다
반대로
압니다
소유권이전등기
황해
##정비법
##킨다
의의
보급을
실시간으로
가깝
세계유산
관리는
이사장님
선정은
세관
과징금을
##계획서
##퇴직
산란
일들이
##계획은
석조
##시코
##나이다
관제
부과할
협약에
자식
전사
번지
본부에서
주민들
여성가족국장
법제처
참여와
여러분들의
일반현황
##식에는
판단되는
스승
되자
##타워
##배를
제작된
미용
잡는
여기까지
총사업비
##책임을
채증법
##국제공항
생각하면
##계는
했죠
바람이
바라고요
습득
추가적인
각호
맞아요
유흥
제자에게
교육행정국장
##회의원
##제안
위상을
##매립
보고드립니다
##ap
너비
##도자
기성
사항의
과제로
목욕
구축하는
##격리
성취
용기
위탁받은
올라온
설치조례
주민지원
할까
수백
지자체에
포함해
##조약
산학연
기를
일용
홍보가
##개시
진행하겠습니다
사로
세계에
화훼
행사에는
시정명령
방화
거기에는
사우
차이를
말레이
추첨
전보
단체는
모여서
##우처
있었으며
하려
용역이
기명
세계의
보고서에
교육과학기술부
사신
부각
실시한다고
개념을
현실을
변화와
병무
않았을
##역으로
유한
##장학
잡을
보리
산책
지켜야
보이는데
미생물
이것는
전문가와
##분은
임의로
뜨거운
##초등학교
질의한
소중
회전
지리적
##산은
옛날에
해라
심의위원회
아이템
가입자
악화
##분할
인식하고
참여가
##경제의
납부기한
정보통신기술
주권
비용으로
세탁
KBS
유교
##미술관
##AP
취지에서
단서의
유익
불편이
##레이터
되는데요
버튼
상수원
해에
테이블
법률상
거론
시연
산업안전
일어날
되었음
순세계
여기도
건강관리
저수지
학자금
메타
제기를
제척
가져오
통계청
##공모
나라가
모양이
서기
절실
산업화
##되나
인상을
##비도
중앙선거관리위원회
미래부
개도
것까지
참관
##유입
재단의
and
국공립
##추천
상용화
노선을
소금
##후견
재산세
교차
##농약
숙련
국무총
기부금
##해제
객관적인
##의무를
센터장
모를
##지마는
피보험
재학
엘리
제호까지
앞당
시군의
월의
##되기를
교도
무엇입니까
##학에
좁은
완전한
성종
##주주
잡지
규모에
성공적
도모하고
옥외광고
이야기하는
건수는
역점
칸의
##포털
보고는
뒤에는
살포
보더라도
되돌
내시
##민이
각각의
##상거래
근로자가
손잡
시집
기준과
각하
##드가
복권
상황은
공고를
했으며
공구
토크
판단한다
##재산을
패러다
##방은
범위가
##회의소
의식을
병원에
준비하는
향한
금품
가마
원주
주기적으로
비료
홀로
##공산
진실
사업별
열려
##사관
특징이다
##교부세
전통문화
##코올
명심
안에는
##국인
지체없이
##ck
보상에
전신
조직의
심장
흥미
자부
법과
규범
##셨습니까
해주고
밀양
##돌을
고시하는
추진실적
분석하고
통관
농산물을
민중
차이는
산업재해
##산업에
세척
##열을
##으로도
주택의
장군
강력히
##코리아
##어촌
진보
##르지
무궁
##월일
편성한
관음
하야
##타당
어렵다는
담겨
발을
##차의
축산산림국장
##가면서
법률로
조립
처리에
질의할
등급을
나눌
거짓이나
재판관
드렸는데
##천의
가정폭력
##빌리티
말씀드렸듯이
예방하고
##란히
따라만
개발하여
의병
구입을
##션을
주체가
##침해
갈수록
파출
다운로드
정월
강동
잔액
예산심의
확진되어
##후보자
참조조문
##매체
연면적
할당
두지
범정부
##파가
원본
##지원금
복수
그에게
필요시
기호
토지이용
총력
의료관광
##살이
전액을
군산
운영되는
문화복지
광해
장소에서
##이었던
아동복지
말해
업종별
##재가
그들을
얻어야
이거죠
관리자
진술을
상무
폐수
##보유
명부
페이스
##더러
##변호
시민건강
##냐고요
만기
한국에
##속의
##파를
생각해서
합쳐서
제설
국왕
실려
제조제항중
싶다
##드리는
##자와의
관해서는
근무하고
프로젝트를
##기초
의사에
하나요
해외시장
하구
센터에서
##드리고요
남구
##정화
집행할
화려한
##어린이
리더십
역사와
관용
##단체가
고병원성
일반적
밤에
어항
항일
끊임없이
입주기업
공익사업을
관한한
계속하여
했어야
시범운영
지금까지는
##마토
공무원들
뿐이다
디스
##보강
##기온
##혔다
##보급
##적이면
기원전
비전을
농가의
당면
이르렀
지식을
이슬
경청
완료하고
징역에
모셔
##과장이
과반수의
예컨대
분석하여
순세계잉
않으며
장치를
들어갔다
수정한
외무
불편한
내륙
##육성
그쪽에서
##대학원
예방접종을
##AS
반영하는
접어
##강사
##행정을
자긍
##공사와
##었죠
책자
전복
##치산
사업인
실정에
말씀드렸습니다
늘어날
온갖
창의적인
pp
아웃
사항별
##푸드
유죄
산업자원
부회장
심히
잔디
시범사업을
소상
기획조정실
싶고
##하러
인근에
명의의
체결을
독거노인
수업을
유선
군사를
중시
항목에
추진단
편성되어
캐릭
하단
빈곤
생활에
조상
어려웠
평생교육국장
나라에
됐기
동화
인격
방법도
중앙행정기관
남아있
살기
합의가
들어갑니다
제출하는
회의에서는
신뢰성
나왔는데
주택법
싫어
서포터
트랙
이왕
##중에서
시작하는
농수산식품
표현이
추이
소련
미처
단계적
원예
##리즘
시행이
탈락
건강과
최우선
현상을
##지원에
평택항
##인적자원
민간이
착한
##활용
크기는
대답을
이자를
##연구개발
삼가
해주는
우수상
교직
##공시
이차
종을
코로나의
수입을
공민
마을의
##입지
##채의
##산업이
선정한
제한이
쪽은
지역교육청
양해각
시제품
유일하게
##산업과
##졌는데
##모집
주십사
이집
생각에는
지장을
층에
##결의
결정한다
보고에
했으나
##분야의
경상도
긴급한
두께
지키고
바는
약사
이루어진다
더러
##금액을
높아지고
##백과
분석해
사용하기
부총리
##채납
##층이
법인세
다중이용시설
Re
계기를
집이
세수
##동은
지역적
방침을
기법
준비에
대상자가
기부채납
식별
종친
##주도
##ess
##말을
검진
출국
구경
호를
##럽게
실시하여야
불가피하게
즐거운
관념
한을
승강기
##지출
하든
CEO
알아서
의미로
해놓고
드디어
향하여
관리체계
수입은
신공항
##바다
생각한다
참여는
적법하게
체결했다
태조
조성할
산성
스케
본위원은
일회
##자료로
집행에
방식의
예전에
국가공무원법
일반인
성공을
소위원회
과장은
얼마가
수칙
##쉽게
##강의
이거에
항생
##ov
장터
##대부
농업기술원장
센터의
평생진로
채워
계시나요
도시를
자발적으로
##트는
자에게는
시민참여
##AME
년과
##저축
조치로
조성해
밖에다
적혀
취득하는
시티
##건축물
##결과를
##기구의
##마루
##박을
##공보
##연구소장
##만에
대상자는
##레일
한전
경험과
판단에
리스크
##서에는
아이를
##등한
발표하고
##분야에
유보
인류
통역
##학교로
##된다면
명칭이
녹음
클릭
대구를
기지
소득을
퇴근
걱정을
지정되어
얘기죠
전무
합치
지방자치단체에
연동
원이다
약관
그러지
법관의
일률
종류가
##교섭
채무자의
무사
되겠지만
함평
동의가
촉탁
##품목
면에
중소기업이
버렸
변동이
저렇게
경제실장
속으로
주민들은
광교
있단
맞고
급격히
기의
청소년들이
구에
##나가는
그루
서술
부산시의
재단이
몰라서
기간의
올해로
대응하는
말았다
##령에
동아리
##사실을
돕는
이어질
개씩
아래로
평가에서
##평생
관습
##였으며
가용
것들에
올랐
기본소득
생각하시는
회로
가급적이면
제도개선
주거복지
계도
지원하겠다
##통을
건립을
고전
##설이
일련의
전자상거래
이원
담긴
활동하고
역세
머무
피고인은
물놀이
##정보원
##전쟁
순차적으로
##점유
##시기를
건설에
기인
##거리는
##자료의
##활성화
특별시
##보세요
당한
변형
주기를
있는지를
공매
##도시로
요구되는
장난
무엇보다도
연계해서
인력양성
경력단
국회에서
##종사자
필요성에
왔을
거행
창업을
적기
동에
공론
##연수원
냉장
대조
측의
뷰티
참작
비밀을
##심의회
절차는
##클러스터
일부분을
휴직
##경력
계시는데
의견도
##수질
##년도
Ch
주일
과의
다양성
재화
##빨리
법률은
눈높
노동부
예가
##청구를
st
방송을
##DI
적도
지난해에
안내를
##박스
제시해
건설업
##합을
##결이
경위
경제농정
기여를
##는지는
적당한
아파트를
우리나라에서는
감정을
부지사
보호와
##CO
내용들을
##시지요
##진단을
재단은
잠깐만요
##석유
매몰
주위
##키스탄
공공기관이
수록되어
피의자
거느리고
중남미
##망의
##발이
##ub
내구
##루즈
요양병원
사업체
구례
게을
##관리소
사해
제사를
##불이
행정감사
당연한
도시농업
채권자가
주장과
##설명회
전형적인
##채취
바입니다
기침
교육도
기초생활
가능하고
플랜
체약
##시스템을
시장에서
말레이시아
##님께
무죄
자유로운
남았
발기
음료
도민과
통계를
반면에
아이가
이후로
##구역의
##권한
##본부에
들었는데
차상위
지식경제부장관
판정을
포획
개개
사이에서
운용에
진압
못하도록
최대의
##면에는
##냐는
##부사
요구하고
##감은
##느라
발생에
세에
안되
##가와
정보와
개최해
특성상
소득이
임금을
때문임
##성한
판단하는
법무법인
부활
##통일
미사
경제협력
얼굴이
이르렀다
용서
부과한다
계획대로
##연계
확정이
주부
의미하는
##포를
아시안
미래의
대고
가자
관계인에게
북한이탈
접수를
구강
시민안전
일할
##매수
자리로
없다면
변상
김장
안되고
더구나
육성하기
한눈
수행한다
##쳐서
대형마트
공존
규정의
##강제
매체
기술이전
획기적으로
떠오
##HO
유지하는
죄가
국민안전처장
제목개정
##부분에
사용해
않았나
감사는
자치구의
공식적으로
초월
위원장도
##평화
나쁘
기록물
사명
아시죠
차별화된
##란에
##으로의
현재로서는
것이어서
용수
국민을
제보
도시로
이끌고
증액이
인식이
엄격한
청계천
규약
##제출
기단
주름
순서는
우수성을
확보와
바꿀
하자가
##했습니까
첨가
##동맹
활용해서
위험한
##역이
개는
##학이
수상자
색깔
##교회
아울러서
비공개
프레
##절한
무리가
NAME
조화를
환경에서
교육과학기술부장관
월평균
맺고
사건은
도를
하셔
##리즈
##중을
구축과
광주군
##트의
##들이나
선을
다들
지자체에서
왕은
##감으로
토의
##인명
요금을
예전
##마자
창의적
관리의
추진으로
몰려
이들을
소유자가
사격
부분적으로
##연이
##봤는데
##조합의
본문에
교육인적자원
올라왔
이용이
당신은
소장님
##조사의
##국악
##서류를
##백을
아니하였다
당사자는
일어나고
그러니
##절차에
납니다
화산
##겠습니다만
##효과를
진료를
##식에서
통해는
강의를
요청했다
Con
청년들의
전에도
개념이
안타까운
출전
##지사가
##납니다
있으시면
도매시장
모아서
넣는
##강화
광고를
장관과
원시
측에서
얘기한
우려를
실명
이용하고
홍보물
명인데
##위원의
기금이
평을
거로
근저당권
방향이
세균
형태는
##수수료
순찰
은평
##ow
대내
얘기도
있기는
학생들은
##지붕
변경한
##시스
사용된
시정에
이용자가
북한이탈주민
##상속
통폐
청탁
되었으면
예산편성을
반대하는
##했고요
권한은
동생
싸움
##버튼
##작품
수상한
과장이
중소기업에
중임
내려온
근린
##동과
금호
##사고가
통장
고유의
수에
##베이
의회사무처장
종래
현실화
아닌게
유지할
업무상
수평
##위원회와
질의응답
##경관
유해화학물질
같았다
정리가
공평
지역주민의
소방본부
것일
받습니다
##과대학
교섭단체
제국
다듬
장착
발의한
부평
관광객이
고령자
만든다
헌법에
소액
개화
장기적인
##반이
콘크리트
자체도
##민을
경기도를
저희의
경제에
장악
통영
프로그램의
##등기가
의결코자
##라고도
안전교육
좀은
절차와
스프
평가하는
##ad
폭이
##선에서
조류인플루엔자
소장은
아동의
채용을
국민들에게
체험할
##클럽
피해자가
코로나가
의거해
##타당성
시너지
거치지
면책
##았으며
도로명
제부
행정이
보인
점과
이어져
블로그
후견
지냈
##반의
##역량을
홍보와
조례안의
왔고
예보
##사회복지
##라인을
미집행
나지
야구
##머리
어디에서
생리
개선방안을
납부하여야
태어난
귀촌
경력단절
##모가
##예산이
공직선거
작품이다
평면
농수산
결론을
##여자
##유공
관악
납부하지
일으켜
이에는
그나마
유배
충분하게
##약자
년부터는
비례대표
할지
##현장에서
##방법을
한가
부합하는
좋겠고요
민주화
소관에
저런
계산을
##점과
나타내
소득세법
말씀드렸던
##이즈
하자는
방식에
마당
의장이
예산액
##음은
##불교
집단감염
폐기물처리
양주시
구성하는
제출하여
보건복지부장관
교수가
다는
과거의
##재난안전
공단의
유학생
치열
##재산권
##거니와
잘해
##캠퍼스
##해져
용어의
등이나
제출해야
남해안
근래
불행
##시간이
거래를
##운동의
가꾸기
하사
##아파트
위원님들과
여호와께서
동의안에
경기문화재단
##기준은
들어오고
산업계
수립하는
##령의
가격은
관계되는
적을
현장실습
봉사활동
질병관리본부
증가할
시설본부장
고마
년경
콘퍼런스
해군
투입하여
추경을
과잉
##란의
##재의
주요한
##자치단체
대구시의
멀티
대는
체력
##간이
장단
##짐에
보람
##문제를
취업자
신원
구성과
시작해
발생은
열렸다
##부패
##학교가
호기
##개척
##if
방지하고
초점을
염색
꽃이
제시를
최우수상
##맞이
##수자원
기저
반하여
현실에
부시장
성의
진학
너를
파종
그러다가
##장도
명당
회째
이하인
시조
있더라도
부는
##ive
##홀에서
과장님이
성황
세계를
건강에
제작을
내년도에는
바위
정교
외교통
##안으로
포상금
가능하다고
##협의회를
징수할
그린벨트
개정안은
도로에
계류
어리
##량으로
정원의
취지가
나누는
면의
일시적으로
구입비
##적의
환원
들여다
관서
없느냐
진지
찍어
양천
##산과
범죄의
극복을
국제표준
##인가를
기재부
##소설
물의
아낌
주시죠
생각에
차례로
폐사
한약
##아의
임기가
넣어서
지급이
##IST
하여도
고려할
유역
자금의
치료제
날개
의류
##집이
##편에
슬로건
##중이
형이
##전염병
##퇴근
##학자
물고
이자수입
가려
국정과
##책이
노력한
있는데도
사정에
알림
오늘에
생산량
부대행
##유형
말이야
나누고
##적으로도
명령에
로컬
의례
##ine
전통적인
전문대학
보고요
##적용
##채권의
되거나
논지는
##관에게
공무원들의
심폐
길이는
생각한
고민하고
대학에
놓아
조사대상
기동
발생하여
생활치료
단지를
규칙에
반려동물
메이
확진자가
해왔
##한도
이식
모터
국군
순서로
있을까요
##어의
더욱이
갈음하여
연구는
##광역시는
곧바로
소식을
파주시
세부적으로
병이
오후에
##심과
협력이
주재로
집어넣
협력의
과실로
지속가능한
넉넉
전직
인천의
수감
다행히
부서의
뜻에서
했는데요
##법중
청동기
##표에
참가하는
품목별
선정했다
공개경쟁
거기를
##과금
동의합니다
서울로
삼각
하수관
대접
고령화
대전시
열었다
구성한
##조정을
준설
감당
병합
##드로
한국은
##호가
만난
밥을
BT
##감염병
자기를
돌파
업체에서
동아시아
##내용을
공공의료
전력을
부분만
검증을
##웨이
시범적으로
마크
협동
늘고
분묘
공감대를
불과한
개발된
당신의
입구
증진에
대출을
##ist
기억이
##PC
아이들을
지급하지
##권역
예로
하향
연구와
곳도
저희를
감사담당관
##사무처
요건에
통치
만나는
사실의
##증상
역할과
간담회에서
##는는
II
##모리
##료에
##모임
목적과
냉동
부지가
##하였다가
위험물
대통령은
연천군
소식
집행하고
##가루
없었고
##장터
얼마만큼
인계
농촌지도
##업종
거대한
##메트로
##급이
##거리가
여성가족정책실장
##소방재난
개최함
사원
갔을
관광상품
개의하겠습니다
적절하게
신입
검거
이들이
놓으면
시간도
기다리고
이상한
##경쟁력
죽는
복지시설
행사의
사업비로
손님
##천군
조종
상근
##던데
보호하는
농사
바쁜
양성과
대응하고
확인하기
모빌리티
시작해서
신설한다
천일
기각하고
바쁘신
낭독
##팀이
것이지만
활용될
국제사회
##검찰청
방안은
자발적
금융위
분들의
##사법경찰
재학생
사양
##RI
보험계약
책의
비단
구현을
##판례
경료
자체의
교육공무원
m로
##심은
했거든요
그것만
장부
출력
서울을
주장에
처녀
발의하신
네게
중랑
이상에
소환
바꾸고
긍정적으로
여는
##화물
운전면허
설사
부끄러
발행하는
했더니
자세로
시스템에
##병원장
시민들
지방분권
아니야
##대구
소방청
##수계
##메리카
##영장
##작가
##그때
플랫폼을
번식
자세하게
협의해
합법
인기를
돼는
되었다는
유지하기
취소를
있겠죠
요소를
구성한다
공단은
제정을
##마당
이은
시골
##락이
복사
작년도에
그때그때
스마트팜
썼다
면을
얻었다
##개량
억씩
월과
작성을
소통의
##본은
공공부문
그랬을
노력에
추구하는
##질환자
주유
시작할
다음날
SH공사
특수교육
대담
돌이
을을
눈으로
가능하게
시민사회
선정되어
현물
변경하고자
스페인
준다는
##직은
날아
##사항으로
공장을
여러분께서
봤어요
성균관
하라는
지방비
옳지
효능
##학교는
##발전에
심사에
석사
사고로
성매매
쓰여
세계에서
한눈에
진행한
비용에
환경부는
우정
군과
##어지고
그쪽으로
도시안전
GT
##오리
##음에도
분만
떠나서
고온
##부즈
서버
프로세
##감의
관광자원
애쓰
##풍을
오기
결정의
마이
시행일이
초고
##베이터
##해양수산
만세
할까요
주민참여예산
인문학
주먹
마켓
##유치원
유성
하고서
심신
##졌을
경의
나온다
영업정지
증거를
한나라
한국형
무형문화재
저희들한테
식품산업
조항이
결격사유
유가족
엔지니어링
지키기
지원의
민요
절대로
재적
총량
계획서
에서도
가령
감수
최저임금
기반이
대해선
데로
유대
##센터장
복지증진
국토교통부장관
재위
지정하고
##아트
PP
궁궐
보를
##본다
바꾸어
씨를
배후
모르겠어요
차량의
부른다
방호
##보로
처리하고
농림수산식품부
바를
추진방향
수험
##들입니다
기숙사
##자로부터
갖추어야
내릴
돌아와
창출과
오셔서
충격
##리핑
수립할
세대가
안산시
나눠서
도리어
##사오니
세출예산은
버리
치러
##주십시오
진흥을
답변에
선교
측은
말미암아
가압류
##하수처리
대북
여쭤보겠습니다
재난대응
해외유입
##난방
주민들에게
##그래
있는지에
극대화
창업기업
##어는
하였으니
평화와
비리
고용보험
결정은
천천
단계를
극단
길이가
##용이
##소생
목적의
마세요
중소기업을
##다나
개정되는
상고이유의
외출
##개발을
국한
##시마
의미한다
##DC
대표로
혁신성장
##무의
노숙인
직무수행
경찰공무원
##채는
적용이
연설
피아노
의문이
방안과
힘입
자본금
##시공
표를
##고법
그렇지는
증거가
문형
연구의
단원
##사업자에게
지원받을
수계
점진
겸임
보거든요
체감할
화폐
설정하고
몰아
성동
조정하는
구매를
##이동
##애로
쓴다
쓰러
결정하고
고수
마음의
##방문
##희망
##반에
비싼
현실적인
내내
애니
여부와
재현
##집행법
지방세법
원인은
지역화폐
##기일
환경과
##청장이
군정
소비자에게
용어를
밀어
이곳은
사행
##요건을
특화된
수출을
국립중앙
국가기술
권력
유리한
우량
기하여
진실로
등록이
다리를
구릉
##ee
긴장
평생진로교육국장
행정사무감
못하면
추상
더한
##테러
여성이
부총
열차
지역경제
의결하여
물적
##진한
##금액의
부과하는
##반환
##공원을
공급할
개인정보보호
자체에서
법안
이르게
명의신탁
소명
공정위
믿을
버려
##었거든요
개항
시군이
점수
들어오면
기술혁신
의의가
이룩
브라질
대표발의
치명
천연기념
고민해
##병의
해주시고
제기된
업그
고시하여야
받으려는
교육지원청
방학
세종문화회관
대부분은
년에서
봄이
##처리를
##서명
일차
##제품의
얘기할
재미있
학년도
##목록
서류의
교육청은
##만큼은
##기능식품
##충전
학교로
문제점은
보충질
아스
좋겠어요
상황으로
실제로는
##체계의
객관적
Kor
분명하게
보이며
##이었습니다
보장을
억울
어째
의원들이
거버넌스
스테
비교를
달성할
수차례
지급에
대표가
계상한
##방안에
주어진
mg
조정할
##되지만
발대
부가가치세
##으시
제주시
쇠퇴
##시험을
상대방이
아이들의
명단을
활동의
우측
청렴도
께서
차량에
연장할
신하
수상작
연도에
서울메트로
되었던
반부패
자료와
성인지
재항
국민은
뭐야
기울이
지분을
##보좌
공하
소의
할게요
사각지대
명이고
자네
한라
청소년을
##악의
틀림
퇴적
효과는
##시한
논의했다
해줘야
##변제
소방관
두드러
형상
가리키
저쪽
준다고
설립한
환경부장관
거룩
출퇴근
노력과
제를
영예
안전점검을
내서
받고자
알리기
##산에서
사무의
수익이
같지
##순위
손이
##악을
BI
말씀도
데를
안은
즐겨
##레인
##막을
교양
포괄적으로
예산현액
그러기
경찰관
##르면
포함되지
유관기관과
캐릭터
이만
영동
정도밖에
정도만
교부금
오로지
##국어
함부로
원래는
문화와
참가를
##등기의
##직자
어렵지
보도가
건설기계
내렸
작업이
배우고
차선
##정상
##보의
영리
농산
차장
포스트
##관제
재산이
성희
면국
##지대
누릴
파는
연임
원수
활발히
상금
소유하고
the
타인에게
##까지만
라이브
단백질
뜻깊게
사무국
살리기
정한은
##졌다고
##동원
수고가
##ev
기능은
##고지
형조
투명한
##담당관은
억입니다
실은
보증금
부분들도
##기후
타당하다고
주자
위치하고
관리해
당부하였다
##업이
가정복지
자발적인
않았기
##메이션
민주시
전남도가
깨닫
용역비
##하였는
발생되는
가격으로
크루즈
공연장
미추
유효기간
##체제를
창출에
정책관
##상으로는
##차별
사안이
보물로
교육감이
가벼
전날
가족관계등록
중국에서
상황과
채무의
지방재정법
판결은
못했던
참여했다
평가한
##진은
불만
해당하면
설치와
방산
자동으로
활동은
한국환경
작년에는
구성해서
외국에서
응급처
허리
##연수원장
간판
올렸다
##은행의
노래를
길에
사업인데
벼슬을
배터리
사업장에
점의
기획관리실
잡아서
전념
유수
동의안을
##되다
같다는
불리한
재정이
##열이
왜곡
정당의
용도에
##배상
##명세서
직무상
현존하는
수중
서식의
##어지는
생각으로
임산물
교장선생님
중에도
홍보할
면허를
하십니까
아라
탈퇴
하드
명실
연내
선정하는
취급하는
원대
불확실
##문제가
##토리
지원되는
##실적이
지원금을
##년이
사용은
영국의
평정
경기콘텐츠
먹어
편성해
늦은
승마
의뢰를
바람직하지
아십니까
##침을
황금
제호가
처해
잡았
겸직
명칭은
스트레
쓰기
했느냐
감각
극복하고
달이
경륜
플라
##단체에
##변화에
관리비
##됐다는
영위하는
전과
##군으로
잘하고
확대로
위기가
선의
살펴보고
권한대행은
관료
전국적인
정책방향
사업연도
내년부터는
기왕
충청북도
논의하는
가량
가져야
원짜리
탁월
##취를
제도적으로
##조사가
구성은
맛이
현장점검
개소로
국립산림
터키
만나서
걸린
노하우를
##인수
제주의
종합건설
투여
바우처
##ate
오늘도
##동에서
심폐소생
펼치고
사업이라고
교육재정
어떻게든지
돌아가는
행복을
년도는
판단하여
자동화
교육청에서는
##대회는
나타날
일조
완벽하게
개념으로
시장님이
대하는
공인인증
기산
성리
혼란을
##예산은
위원장으로
##사에게
공고하여야
괜찮은
당부했음
소녀
황해도
않았는데
조금이라도
##천을
주게
영문
적정하게
부지사는
##본으로
##보내
임해
폭넓은
모른
ESG
##고루
##속을
과태료의
##복합도시
다투
파악할
확정판결
근로기준법
전하는
올라오
방통
번이나
수산자원
거북
인건비를
깊게
손가락
##리스트
행정기구
산업입지
왔음
##받으
##스에
장애인이
##하셔
하십시오
##무형문화재
##활동이
##장관회의
장에
기본권
들거든요
자가격리
##플러스
외국인투자
##지향
육아휴
달간
부친
알리
##비용의
##대책본부
추천하는
##하였기
후계
KTX
##예비
비중은
호우
금요일
설비를
지역아동
단절
쓰레기를
감액된
##대원
필사
알릴
환자를
예술의
설계가
수능
방식은
연차적으로
잘라
사학
아랍
위치가
##기만
장르
배타
##체납
줄어들고
##제어
내부에
전화번호
명백한
교훈
없음을
됐는지
님께서
나에게
마음은
가설
간섭
##ment
##질서를
처한
외환
##소비세
##표지
##운행
마스터플랜
지원단
교원의
기회에
양을
법령이
##살을
연구하는
심사된
##절차의
트렌드
##력발전
개에
많게
신혼
개발계획
경복
##면과
찾은
그런지
교육협력국장
마을을
##심리
가운데서
기본계획의
덧붙였다
정책으로
없거든요
전시관
승인이
교육부장관
따복
마곡
지위에
간호사
항만공사
##활동의
산소
ppm
##겁게
수의계약을
지역특
목을
인사혁신처
##미는
됐습니까
넓게
누수
거제
균형을
전국체
무거운
##선거구
주사
방역수칙을
##사업장
부산에서
능히
##년의
그동안의
##트라
제출하고
운행을
사리
구조가
모릅니다
매력
영토
##인증을
의원님이
성희롱
발전할
##트리
고민이
농기
사회에서
질문이
영웅
가동률은
수변
##금액이
않고요
약물
경각
부드러
논의하고
헬스케어
어떨까
이성
소홀히
금일
항구
##유가
서울고등
월말
건강기능식품
국토교통부장관은
이렇습니다
낮게
##공해
원천징수
법리오해
주파
##조사는
행정소송
되나
약한
##풍이
취지와
명절을
기여하는
재임
다양화
##사상
육성과
##프리카
상고이유에
##벽을
재도
아닌지
소방본부장
##군다나
독자적인
계산한
즐기는
음악을
판단하였다
눌러
지침이
곡성
획기적인
공인회계
##기부
협의회를
인적자원
성명을
소실
효과적
논의할
홍보하는
얼마를
시스템의
박차를
딸이다
늘리고
연찬
지름
식용
##초를
##자들에게
유형문화재로
##산으로
활용이
주가
기다려
엄중
##격차
##계로
나이가
함이
##자유도시
정류
정성
오디
##행동
하더라고요
##도시철도
계획안에
철저를
명백히
아가
보전에
특징은
##융자
WHO
환산
재편
청구가
사가
아나
민간인
유가증권
현저하게
옴부즈
들어야
막아
##경찰청
##타리
보정
적합성
##조로
때로는
넘치는
나다
APEC
지사님
문장
종류와
##위원이
시켜야
##튜디오
경영을
##열병
도입한
해석을
지구의
원고와
내려오는
왕래
물품의
가다
언제부터
리콜
년대에
##지나
행정중심
##보디아
넘게
다각적인
IF
무상급식
대신에
않겠는가
금년도에는
중소벤처기업부
##향을
감자
것들도
거꾸
파크
LP
저작물
보도에
##지다
보도를
사례로
수형
시대가
공정하고
아는데
예쁘
오류
지구단위계획
환경의
아기
인재개발원장
중지를
경부
패키지
##더라고
했다가
세의
올라가는
SO
공급이
기능과
제출하도록
##애를
한편으로는
편성할
하셨고
맞춘
분까지
학교와
풍수해
처우개선
판시와
듣지
빈집
##코드
정관에
참조판례
페이스북
살인
왔어요
내리는
##연하게
별개의
증권거래
고액
##명에
허락을
##국장이
제정된
##지주회사
남한산성
GS
##관리의
##소속
논쟁
코로나바이러스
##진다는
경기관광공사
만났
풀이
감지
이면
##공기
영재
즐기
미니
##수급자
일몰
이상반응
잉여
요하는
나타난다
##됐을
전자문
일자리가
변이
텔레비전
가수
가옥
중고
##훈장
##구조를
역점을
앞과
안전성을
개발할
형성된
세조
경력이
생태계를
경기도청
통폐합
##네상
상품의
거으로
돌을
향유
##두리
군부대
남을
단독주택
직무에
투명하게
계수조정
아프리카돼지
##연구원은
저촉
##혈관
도입하여
##달라는
서비스에
시민들을
중복되는
어획
갖추지
걸음
토론회를
황제
태권도
##위원을
계약직
구간에
중종
일부의
##바람
적재
골고루
중학생
애매
수립한
효율화
번영
##으려
##대금을
청동
##물인터넷
신청하여
청년의
##무용
꺼내
천천히
대금을
불어넣
공정성
환경녹지
##ip
임금의
##위원으로
##혈을
애를
##스테
아니었다
가르쳐
탐지
훈령
주석
식품의약품안전
##방으로
공감대
만주
스티
##대책에
신문에
처벌을
##모니
기관장
##정수
월요일
사면
거네요
다름
연령별
정식으로
집안
영산강
편본
여건에
편지를
나누어서
체육관
환매
##청으로
신품종
도시가
박탈
투자하는
무지
일주일
크다고
급격한
디스플레이
발생했을
백두
##군인
제자가
유치에
대표적
업체들이
납부할
종일
사물인터넷
대승
국장이
##율에
활동으로
주민을
사로잡
짚고
접근을
불명
##기업은
##네트
멸종
선발된
##TV
자동차를
되므로
서울시의회
##마의
##따라
##공간으로
주소를
데려
성북
달서
##작업을
##신과
그해
말입니까
시킨
##기업과
어떻든
것이니까
공포된
##인이나
앞뒤
##워킹
왕세
바퀴
보기에
##로봇
무형
초상
설루션
과감하게
질의하십시오
봉급
각오
사교육
막고
##수목원
얻지
수취
가져가
도래하지
파악해
본래의
법리에
구축할
양재
환자는
추진하게
경기가
알려드립니다
대학을
정돈하여
편성하여
##급한
##생활에
##수당을
말씀하셨지만
멈추
화강
자격증을
분기별로
정해서
해당이
표시된
다루는
여유가
##규격
직원에
수정안
는는
지진이
월경
##여비
##창을
##건전
조사해
손해가
자구
여성능력
맥락
사태가
수단으로
올해에는
상반
환경국
제한할
벗어
각국의
실현하기
아니하
해양수산부장관
흐름을
##병원의
건과
협력과
##혈압
실천을
청와
사인
사용되고
##돌은
다해서
대리점
##진흥원장
제조업체
##분으로
보고하고
대학에서
선생님들이
톤을
소감을
가공식품
마시
##하시죠
Pro
드러나
중등교육법
##신지
##채가
안정화
미얀
부자
입각
희생자
채널을
##공인
삽입
##생활의
전문가들의
이체
활성화하기
억에
주제를
얘기하고
Com
##예금
사람들도
사회단체
생각된다
상수
기구를
보전을
자기들
역세권
##브랜드
하천의
움직이는
내부의
##광장
##하시면서
환송한다
옮기
잊지
본관
조사하고
양립
##하여서
##이었으나
제종
사용허가
안쪽
##사들이
##체계도
##았음
공모사업
물은
대백과
원이라는
치우
이겨
강화된
민주시민
운동장
교대
부정적인
지상파
##산업단
계집
##항목
결재
됐다는
진행됨
요원
정도면
불교의
속도를
자치법규
치는
재정을
해역
사항으로서
예비타당성
사냥
고리
호수
시상식
오해한
국민권익위
역사의
증손
다르고
당원
평소에
작전
수립과
##정책국장
작성된
놀이터
##되었지만
수지
##AC
않았지만
##시장에서
자살예방
걷기
참고인
신생
분위기가
장비가
인도하여
수급자
요소가
오케스트라
##관계의
제정한
관리하기
국가나
요런
활용으로
중건
##당사
안전보건
##동력
약품
증가하여
띠고
##특산물
떨어지고
##익을
위주
이른다
은퇴
고려의
거기도
미추홀
경제적인
중국에
눈앞
##탱크
접견
위함
커버
소속으로
제호서식의
##겠고요
##레이션
메시지를
##받기
군데가
무분
녹색성장
산업이
전도
위원님들한테
도농
개인정보의
극락
하겠지만
LNG
우리한테
사업에서
헤아
##보건법
이윤
무장
특약
##행위는
이슬람
연맹
참여자
품질을
고려해서
허가가
장소가
시리즈
##ect
증가가
시스템으로
언니
세우는
##회원
##승지
신중하게
##받아서
토지가
경인
각국
##시간은
자아
법인은
농수
##유발
구획
##휴가
얼마입니까
##시키지
취소하거나
세가
서기관
산업에
인정하면
근거는
과정으로
지리산
나아가서
육성하고
##과도
적합하지
오스트
##증권의
그전
빌딩
공화
질문하신
반응을
경제농정국장
총체
기소
가슴이
구가
무엇인가
정보에
행정중심복합도시
열렸
##고도
위대한
##철을
아쉬운
군수가
##파로
주면서
##독립
##공원에
개발도
외부에
매입을
목숨을
##임에
##관측
항목이
##천에
전한다
대상자의
자금이
줄로
보조를
서민금융
##지법
자영업자
국제적인
##공원의
계획도
생긴다
하여서
간부를
여태까지
일본은
연화
지역에서는
진행은
신고가
##펌프
선고를
인사말씀
애플
편하게
오빠
정하도록
의원께서
구청에
말씀하셨습니다
강소
기록하고
KS
지낸
GDP
##리드
##이나마
언덕
##학은
정액
맞지요
쓰게
##차게
고조
생활의
공군
공동의
##스와
비엔날레
경기도시공사
##포상
의료비
납세의무
약국
삭감이
특산
수만
강화로
중위
목표는
하기는
or
PM
펌프
##사항의
##ational
서비스는
내리고
이곳에서
없지요
외국에
범행
##입니다만
그랬더니
내무부
옥상
손자
문무
임산부
않거나
##특례제한
둥글
항해
그간의
##각의
감경
번만
시설물의
하여간
도민에게
심각하게
##계와
##ure
동이
##비밀
##졌으며
규칙으로
조성하여
공여
여의도
오인
##신앙
분으로
개나
신청사
학교시설
사무관리
기술적인
시로
정관을
출신의
졸업한
요양급여
##권리
문인
자도
병을
##규칙으로
성실한
협박
능동적으로
확신
적절히
수당을
전교
치수
현안에
구간을
게을리
염려가
절을
현황이
직면
업그레이드
##안전관리
##류에
##사무를
우수사례를
##내용은
우물
교통위원회
##하잖아요
운영될
장해
##나가고
##토기
꿈꾸
고요
##방제
벌을
교체를
아파트가
본사
##주지
##지자
##고시
##뿐만이
지식경제부장관은
청구인
추세에
미수납
거창
파산선
넓혀
예상하고
위하는
년도까지
부록
않나요
이산화
##iz
가로되
##등에관한법률
않았다는
드러난
인으로
증가율
노란
공유를
최적의
생산된
제도로
수직
의사의
정책적으로
해수부
##소매
유원
성숙
##층을
임시정부
사회적으로
집행률이
지방이
문서로
보상금을
주도적으로
##ard
책이
##공여
발병
편지
##는지를
위문
호로
됩니다는데
활용하기
시작되는
떠올
천도
들어가지
하면은
걸리
진입도로
비수도
부모가
자녀를
##병원이
동안의
선택을
후쿠
인구의
광화문
엔진
위원들
됐고요
꾸며
##시킴
가정에
##금고
쓰면
말함
스토리
강화한다
순서에
전광
특산물
참가할
##진강
가정에서
사상을
일원에서
생산한
찬성으로
성원이
일부개정령
모시
##본이
받았을
이러면
군사시설
조건부
표현한
나눈
운영된다
해줄
가족을
##점용
일률적으로
중화
발생하면
샘플
연혁
계획된
진단을
순수한
몇몇
독촉
멸실
위에는
##TE
WTO
사실인
마을공동체
##대요
가격에
우체국
##예산을
액화
워크숍을
국가별
추락
##생은
다산
법인에
상정된
살아가는
모습은
내실화
백성을
##민들이
교육부에서
##연대
잃어버
출납
드물
시설물을
오던
사본을
거꾸로
정신이
확보한
현역
생각해요
종료된
##전남
버린
물건의
아세요
##겠네요
대학이
있지는
수질개선
머리에
전년동
나열
사도
##신안
기하고
차차
최다
뒤집
유기적인
파트너십
잎은
내다
화재예방
진흥법
##인데도
PCR
##뿐이
##차도
수사를
자원의
생활과
##아지
부여하는
내면
달빛
이동통신
아픈
실외
많았고
재량
탐색
부유
기회로
유감
경복궁
##기능을
합격한
천일염
금감
부모의
부족해서
한자
위원장에
역사가
금융위원회의
도라
개정은
건입니다
납부한
세력
취소하여야
자산운용
재무제
##야지
끝날
전역
##년을
만이
점검할
옳은
##의에
##사회를
급으로
배에
연결되는
기재하여야
달을
##이도
도민을
대구시장은
우리에
면적을
협력에
미수범
농지법
##보험료
그분이
실적은
구분이
전문성이
부처와
##보도록
##급의
거래가
농업인의
##법원은
##주간
##봅니다
질서를
의원님들의
붙인
점령
평가할
포괄적
물론이고
기억을
한국토지주택
홍보관
이민
축제를
##전담
##경기장
확진자의
말아야
추계
##재로
지급하여야
생산되는
아버지가
##바라
##는데도
요트
전년도에
소유권이전등기를
마산
결론적으로
주저
인정될
##계획과
세월호
묘지
##창출
앱을
질이
##행복
넘지
##음과
공개를
식약처는
마이크로
도시공원
독창
원심판결을
마케팅을
##표의
보건복지가족부
차는
의논을
위임할
안전총괄
##실록
시민들은
이행강제
가정을
##권으로
선택할
##주의적
상부
추진전략
계시지요
##겠는가
##발행
이화
하나이다
금정
발원
퇴원
##사진
의료법
##기금법
주기로
시행후
뜻깊은
반장
시민들한테
##설비를
부정수급
저온
##두는
어면
추진함
직책
직원들은
가운데에
선거일
열거
##방해
취하
약을
홍보도
할아버지는
교과서
활동하는
TP
결정으로
농식품부는
줬으면
##산군
협상을
전설
급한
소개하는
적에는
##징계
지적에
양돈
무분별
예상을
처분이
##원예
창간
일대에
확보하여
당사국
바로는
부족하고
##버섯
개소는
성과와
시민소통
음반
KA
금동
맞다
단계별로
꼼꼼히
빛을
##감도
공이
인간이
모형
##총회의
추천한
지방에서
부분이고
이었다
무서운
사업으로서
하우스
이유와
##거늘
위원회에서는
참모
형평성
공모에
승차
한식
남원
업체와
때보다
북극
경기도에서는
충주
선별검사소
##주소
##조사에
편성하고
독일의
멸망
고등교육법
비율에
의원을
입장에
급여를
##불편
경상적
선도하는
삼국시대
대응해
조성이
비율로
토마토
연대보증
차량은
선정돼
기재되어
##방에서
비상기획관
감동
국책
같이는
##류와
전남은
모은
펼칠
조그마한
##계열
주차장을
얼굴에
죽고
문제라고
특별사법경찰
어머니가
따지면
한탄
완화를
우유
순서가
천문
예비군
진작
고위험군
##지도를
사업계획서
일이라고
직업교육
##지침에
증표를
조사하여
항에서
돌아온
해외진출
쌓은
집행유예
지중
##과학관
방향과
것이에요
##소비자
내년에도
##액과
끌어올
소장되어
재래시장
##출연
##상황에
저변
손실보상
##료로
만족도가
통합하여
원나라
달린
##섬유
노력으로
키우는
서울시와
센터에
##렸다시피
지내고
##다고요
추진은
의미는
다큐
지나가
##공사법
갖출
투자할
돈으로
##엑스
완료가
서문
##여객
외부에서
인기가
입는
##집에
지양
의사결정
돌아갈
예측을
고객만족
열릴
퍼포
##진화
재단에서
예산안과
##강좌
유실
만족도를
##허용
거부할
##컨설팅
군수는
노력하는
비타
조사와
밑에서
비난
수협
우선은
##농가의
구조로
규율
##훼손
의장은
책임은
인정받아
경영하는
긴급구조
장인
##선도
소통하는
사정으로
배움
회장은
충청도
지자체는
일문일답으로
자세를
용적률
해수욕장
##화될
##통지
공증
##조트
품목을
궁중
##해설
갈등을
배울
괴로
작년에도
##교에
협조하여
부서별
너희는
하잖아요
을은
##벌이
농업경영
기능직
선생님이
통계는
모서
굴착
##호흡
개최했다고
##처가
##버스를
아실
한시적으로
해결하고
분노
더해
책임지고
종업원
취한
아니거든요
주장이
돌로
분명한
정론
것인지에
판서
##의학
횟수
선언합니다
배경으로
의료진
화물자동차
##재는
##팀은
취수
월별
##론의
##권자에게
농업의
##분담
##처분에
급변
무력
확대하기
거둘
##석과
프로그램과
도면
묶어
점검해
진척
한다든가
##유해
면밀한
간선도로
차단을
ODA
준공영
학자
지적사항
생활안전
##전문학교
##리면서
무효로
입술
##관세
숫자를
활성화될
단편
횡령
자유와
붙잡
##ort
##연구소는
건강검진
변화하는
이득
직할
편성해서
교육부는
들으
프로그램도
과거에는
포스코
자료을
아닐까
##감면
환경친화
보여준다
손익
공정하게
발부
물어보는
한편으로
바뀌는
완료할
##견은
##했죠
드려야
해저
일들을
##학력
예산서
건설안전
공휴
연장을
시나리오
런던
##감에
모이는
##시간에
전통을
참가해
강구해
메인
헬기
위원님들도
시간과
기간으로
버스를
확립을
초기의
네트워킹
딸기
영주
일어나서
으로서
진흥원장
의원님의
뚜렷한
연구하고
공개된
##중지
실무자
아낌없는
할지가
작성하고
삼척
##다운
동절기
바뀌고
싶고요
완료한
동성
배워
판로개척
사이에는
사건에서
나아갈
정책적인
대한민국을
심폐소생술
마는
##병원은
손쉽게
##보지
조언
신청하여야
엘리베이터
##하셔도
지원함
재결
점이다
##인력의
반환을
골든
과정의
쫓아
##고로
투자해
공채
지대
고혈압
미소
##되는지
길로
회화
##무지
첫째는
지원과장
대회에
범죄를
공로
구간은
##거주
##시험에
버리는
##회수
생각하고요
회의의
산하기관
저서
정리해
산업기술
노력은
##수질개선
농촌의
표시가
수천
국내의
보행자
지방의회의
진다
##감리
틀을
손실이
여자가
전진
가전
여하
걸고
승선
예배
인구는
잔액이
전문적으로
균등
나타내고
눈물을
##조차도
골재
경기신용보증재단
되겠고
##기업으로
##속으로
목표가
##였으나
억이라는
길어
은닉
퍼포먼
문제점에
신청인에게
증가했다
일괄적으로
핵심적인
그것의
떠난
수도법
주변지역
건축물을
힘입어
정책은
엄정
길고
지칭
행태
이내에서
처리하기
사자
시비가
순서를
##복지센터
넣은
석방
띄어
공감하고
애니메이션
청구의
힘쓰고
##연구원이
새겨져
살해
소재한
학부
대상인
##서부터
스피
신은
교육으로
이해하기
##은행이
##담당관실
##량과
##지구의
아들을
관광체육
시멘
##저작
오미
공정거래위원회
근로소득
읽고
##민과
모르겠습니다마는
추진한다고
확인서
크지
사용료를
접수한
당기
운임
입장은
심사보고
지구에
개인별
밀려
보고드리면
생기지
비극
환경교육
더군다나
##졌던
##보관
날은
팔을
필요하다면
발생된
##제품을
그늘
활용에
단계는
보태
필요한데
나라에서
해양레저
실시에
전인
확보해서
삭감을
되니
결혼을
대회가
바람직하다고
소재로
빨간
마련이
운영비를
##비행
습지
패턴
##승을
배운
보세
스튜디오
##오나
다변화
조선시대의
역내
지역사회의
##렬한
않겠다
##드릴게요
##화해
거주하고
##행정기관의
국경
덕분에
반영해서
Inter
국문
식사를
증언을
지원법
##민주당
질의하도록
필기
##님들
또한도
과태료는
협의회는
부르고
친일
##편의
공공보건
항생제
본연의
##병원에
염두에
##여부
헌혈
##ew
곳곳에
공백
##ell
있듯이
불렀다
우즈
적기에
##구호
기후환경본부장
돕고
공공성
영원히
공급하고
수출이
도로는
추측된다
##이면서
매출이
선거의
사용하거나
##문화유산
입금
투표를
보려고
불분
만들게
생활이
충렬
기반한
대좌
##사도
##ob
농림수산식품부장관
해당하게
하천법
억은
행정에
소득증
인출
##약한
인종
지정에
여러분과
##사령
##기준이
중앙재난안전
기본방향
수행한
법률에서
발표할
복지를
영역을
사업단
##집행을
미혼
표시한
얘기하면
각자의
##틀을
##시설에서
가족친화
스웨
전시장
##가구
최소화할
##였다고
유료도로
수분
중환자
지사가
예정이
기획행정실장
노릇
한해서
동백
반하는
##민간
있었으면
##청구권
시군과
##av
##듭니다
외상
본인은
결의를
미래에
시작은
맞을
자치구에서
##박물
들어가기
월간
##변경을
##에게서
공포되었으나
최소화하고
대체적으로
믿습니다
위중
증대를
##신가요
##방법에
억의
##우주
의료기
되었기
속기록
안착
##화되는
청나라
국제자유도시
기금에
화성시
가도
소양
수매
보상이
숙지
##재원
성공사
쾌적
축산농가
자료도
폭넓게
앞을
##지자체
##하지요
제시했다
내부에서
##있습니다
물려
도울
이전하는
##수업
요인을
집행부가
제자의
##연장
필수적인
청년이
있을지
##진흥재단
##사회적
상수도사업본부
##예약
마련되어
살림
산업체
넘어가는
전자적
다양하고
특이한
장이나
케이스
질의하는
놓인
국토교통부는
이의신청을
장애가
##은행은
인재개발원
서포터즈
본부장은
가구에
##감염증
연구자
##연구원에서
아니므로
장소로
##ec
협약의
글쎄요
요지
본선
연구실
공원을
동두천시
전동
사기진
왔으나
편을
대응에
신상
국비지원
총포
가릭
병원에서
조정하고
배치되어
비준
부처의
##조치법
추후에
지지를
하지요
목에
##부부
반대를
말씀하셨던
해주시면
##버리고
전시를
금지하는
태도
한국을
전남도에
##학원
##행이
##욕을
##공이
안되는
##CA
영업의
됐던
지인
기초가
##제도가
상대방의
단위의
##경험
저번에
자존
The
일부에
개최될
생기면
회의규칙
결산에
도자기
이랬
교육복지
따르고
싸우
발굴과
운전자
과밀
관직
투자하여
세부내역
알코올
생산과
포함으로
애초에
교차로
평화를
##CS
##했듯이
서방
음향
##장치를
성서
자격은
보실
도민들에게
잘못한
개발로
가리킨다
논의한
##교도
학명은
해주세요
자매결연
수면
환경기술
활성화하고
나오게
보궐
지나서
##결합
합리화
##결정에
판결의
뭐죠
통상적으로
발생한다
양심에
항고
##탄을
민주당
지출이
관세청
창조경제혁신
공해
참석하는
아니지요
궤도
대명
정자
원통
줄고
공공임대주택
증가는
거주자
청컨대
사무소의
불합리
원으로서
##경으로
임기제
수양
아시안게임
여타
버리면
##개가
##설비의
##ang
실체
규제완
혁신적인
있었고요
높이가
강우
경합
서대문
진행되었다
##족의
아버지의
시작하겠습니다
##촬영
##능한
것이거든요
주시겠습니까
설명한
간절
다다
신설하고
구원
노력해야
##양식
이해하는
차기
벌금형을
##여건을
특별회계는
정비에
게가
주거환경개선
문제인데
고려는
하늘을
이벤트를
##연구원의
안정성
결과와
지극히
카자
##신한
미얀마
원유
해변
지정해
차례의
줄여서
근무한
##정치
마을에
그곳에
그러고는
관계법령
계속해
선정해서
사용한다
기사를
도구
##형과
중금속
##납세
주는데
오토
심리를
형성을
##가상
이상과
왼손
저에게
결혼이
관공
신체적
입시
아니하도록
일본인
중앙에서
결과의
것부터
##휴양림
##로와
##국에서는
단체와
특수학교
배로
투자한
벗어난
##상장
##하길
간곡
사간
협력체계를
상점
##인지는
청년정책
러닝
사용인
사업장의
자질
대비를
한곳
교습
않는다면
태도를
혁신성
공익신고
고구려의
시정질
후보자가
인명구조
절감을
악기
확대될
브리핑
이후부터
##귀를
추진하도록
여어
수목원
탈피
##인지를
통일부
한마당
건물로
원만한
##민들의
침해하는
전문지
##플라
역임하였다
##품으로
##재산에
적용하고
공급망
체계가
커지고
자전거도로
##시킨다
유명하다
가죽
졸업생
##옵건대
구입할
둘러싼
이집트
대거
실효성을
문제라든지
##정신을
저것
다닐
춘추
권위
받았으며
당의
익산
조선왕
해외에
않더라도
운용을
검토의견
식민지
들어간다
수정을
##님과
발달장애인
불문
자산을
볼게요
이승
##호는
일반운영비
때까지는
말의
춤을
물었다
##가에서
한정된
화약류
신사
방안으로
시장님께서
##구니
##교통공사
##운동에
연결이
대처를
건강하고
본문의
봉사활동을
##향악단
교육적
물어보겠습니다
연락을
괴롭
위안
##양도
##igh
흔적이
통일을
분해
##명과
원금
층의
오존
기간통신
##실명
건축물에
변조
정책기획
조직에
순국
체결하는
거란
국토교통부령으로
이륜
##번호를
없나요
명종
##채권을
연계된
##PA
경영에
사형
문화공보
기획예산
휴일
심판청구
미주
범부처
위해서도
다니면서
평일
##법무
집의
건설과
금융거래
극복하기
관리하여야
년도에도
일러
행사하는
초록
고압
대안이
말부터
무척
##왕은
##법에서
장점이
좀도
집은
했으니까
환불
##저장
청소년수련
호봉
예산입니다
보험금
너의
법무부장관은
공시지가
현재에
일어났다
대내외
죽었다
재해예방
##ech
과태료에
쌀을
전문교육
농가가
삼는
첨부하여야
송출
시대적
지게
논의된
##작성
올리도록
대선
의사소통
##량한
##하냐
단독으로
##항에
소상공인의
카자흐
초청하여
운영하기
건의사항
상고비용은
유아교육
직원들을
설문조사를
배치를
말아
배정을
위임을
부문별
상하수도
오시
관련되어
병과
##보드
편이다
운영한
안는
오피스
칼을
고려를
되찾
월부터는
개보수
##더라면
고위급
관례
홈쇼핑
마을버스
만들면
못했
세계대전
편성하였으며
백제의
##장비를
규칙을
스카
석유화학
선거관리위원회
확인해서
폴리
연구성과
기능에
대회에서
결의안
관장님
권리는
전환이
줄어드는
법인으로
##방법은
안전행정부
여쭤보는
독립된
증강
하수도법
이행에
존재하지
##위치
과대
내로
제조가
마쳐
핵심기술
담보로
##절차가
허용하는
이래로
시스템은
신청서에
얘기지요
##종으로
##헬스
역할에
깨끗이
수묵
서귀포시
올랐다
물리적
어우러
위원장과
초과할
하시면서
뜻입니다
처리한
소독제
벌금을
들어가게
탑재
목소리가
##버리
권리와
일으켰
옴부즈맨
##네트워크
주조
산지관리법
##래요
풍요
기다리
하기도
해의
상단
제기하지
한화
LPG
재건
의사일정에
소독을
불만이
이십
기분
거기다가
인접한
##회로
대의원
스웨덴
일어나지
내외의
##결정의
배출가스
보름
확인되었다
법인을
발맞
실시는
자유무역협정
##신에
조항은
##인들을
피담보
잃고
제도와
협의하고
계상하였으며
추정되는
성행
##응급
근로시간
그중에서도
사업주는
시작한다
표지판
됨에
후생
의결권
##기금의
인천광역시는
연결되어
용인시
##모금
##아를
교감
먹으면
작고
이쪽에
평가하여
##진흥공단
##랜차
바르게
##장이나
장비의
선순환
학생과
이룬다
때와
소속된
산하에
난민
##조절
귀성
나란히
급성
대마
MOU를
적용한
갈등이
부드
지식과
분열
##교로
제작하여
되새
대처할
자료이다
필요도
민간기업
가을에
무릇
##협약을
늘리는
원하고
지원사업
복용
북방
정차
##위임
수련원
농사를
농산물의
가지게
고치
##지침을
관광진흥
강조했음
##all
##접수
체결된
납세자
잡힌
시험에
기할
국제연합
소유한
입사
치면
##해가지고
##연에
전산정보
파악해서
목사
적자가
안정과
든든
완벽한
면밀하게
지적된
##안정을
교육청과
임명한다
여래
제공자
##활동과
몰래
전동차
개발협력
원심법원에
경제부
행자부
구역을
가담
공간에
가점
통합을
넣을
##무가
동향을
실용신안
경기중소기업
제시할
변경될
말씀하셨듯이
주관한
디자인을
##관리자
발전이
##고리
방향은
##교원
얼른
상황실
자본시장
만화
잘하는
원장님이
##보호를
결론이
노고를
국민권익위원회
섬진강
걸리는
부분하고
않았다고
타운
특단의
올라갈
반소
성적을
구성에
군부
스크린
##먼지
##심의를
안전진단
가결하였습니다
과정과
전달하는
성공한
위약
직위에
##pp
아니된다
##랜차이즈
물질을
부처가
##처에
고산
제삼
가늘
휴대전
전기를
촉진하고
근거하여
##기관리
##현황을
제공함으로써
선정으로
##수탁
해결에
상징하는
##대기
대해를
가처분
블랙
실비
헤어
##구제
증가된
품질인증
청결
봅시다
않았습니까
구성된다
##요청
초과한
적성
경계를
봉투
액수가
청구하는
않으나
##ES
보직
가축전염병
##선수권
##투쟁
달라질
하셔도
떨어뜨
엄격하게
마을기업
죄에
##회의에서
청각
때문에요
##셨다
대문
아프리카돼지열병
코로나에
이전에는
어디를
수임
부탁드리면서
격려하고
만들을
부서와
일정에
##이랑
참가하여
제곱
계단
이뤄질
활기
##행사가
##TS
초과하지
신기
인형
직렬
파이
##계산서
금융위원회에
탄압
기금으로
협력체계
관계자가
상임위원회에서
잃은
주어서
뒤에서
##법원의
타는
여명
머리가
폭을
나가기
협약은
##소환
항공사
지점에
의회를
천주교
##지않
##었으니
인위
정해를
##한의
청소년들의
생활치료센터
파워
##격이
##개의
바라보고
시화
휴식을
마지막에
##사건의
한국에서
노비
드리게
주식회사의
심리적
위원장의
가입을
##인식
전래
등으로부터
부천시
승인안
대구지역
제조로
##구역을
어두운
설명자료
용도지역
추진되는
IR
##대책의
평화의
대학과
학교용지
거시
돌입
##나이
세액을
블록체인
조율
타당한
발표된
르네상
건의한
##었는지
##ne
현저한
대수
##세와
특별하게
##어앉
하면서도
비위
읽는
예타
예산에서
해외여행
나설
##공의
부분이기
##적은
##배추
구도
수립하여야
달의
바리
##택스
행정처분을
시도별
##들만
사업연도의
꿈과
법조
수질환경보전법
독도
##군에서
##쾌한
po
제조에도
분야와
목소리
공법
업무처리
사망자는
타당성을
배수문
고시된
비슷하게
중국과
그랜드
아니하므로
난다
병원을
되겠느냐
좌상
산업부는
##거점
변경은
교사가
나갔다
바람을
전달하고
일부러
번은
보은
총리는
높을
##과정에
심사가
##관리과장
##심의위원회의
소송이
편성하는
##주의에
일제의
책임자
그러니까요
##특례제한법
살이
기법을
##여름
휘발
위탁하는
분권
응급처치
제공함
귀가
##확보
조치할
공급에
근로자를
자신은
당초에는
확대가
br
##보자
항로
유형의
단계가
주정
관리공단
점검하는
재외공
건설산업
개진
등이며
텐데요
그렇잖아요
오락
코너
진행에
가입한
조선시대에
발주를
부두
금융기관의
질문하겠습니다
공소사
##들에게도
CD
수상했다
부탁드린다
세트
기본계획에
##조건을
세일
##곡의
범죄에
##기상
교육연구
형성하고
대구시설공단
테크노파크
이어지고
불쌍
을지
포함하고
비고
##천이
체제로
보호자
결여
위원께서는
평당
더는
지원체계
##유기
##문관
불용처리
유상
##구역으로
과다하게
으로부터
다하지
실지
뉴질
상사
재차
복지관
월동
수장
시료
연못
구글
거부한
아산
화살
행한다
절에
남지
에너지를
기본적
사업자에게
##하시어
당부하였음
타원
도둑
일본에서
가져올
채택의
현재도
##데이
파악하여
옆으로
학식과
정책기획관
노고가
생생한
##해결
규모와
단체로
한국이
##세한
시작이
선정에
##측량
종업원이
한자리에
운동에
없애고
선고받고
새긴
안치
세력을
도선
않는가
창녕
Korea
계상을
과제에
보고드릴
열대
세종시
한국도자
관직을
자긍심을
노예
면에서는
일체의
도지사와
양호한
종으로
지방교육
##저께
성과에
##두기
아니더라도
책정이
기업구조
노선이
관계에서
추진하기로
판매한
선비
##산업으로
##식별
##나무를
차용
답변할
말씀드렸다시피
미만으로
파악한
접수하면
예산낭
라면
돼지고
진전
특성이
가능해
있었습니다만
했지
##디다
은혜를
##월드
도입된
일하고
둘이
해소할
##먼트
##화경
일대에서
의견수렴을
볼거리
별정직
높습니다
평안도
장례식
하느
##랄지
협치
운영비가
##테스트
취미
토지매입
수행하게
##ue
판사
공연이
##한을
부산을
씻기
비해서는
하러
해나가
전환하는
예로부터
이견이
##에이
##하셨어요
##여건이
구축으로
##사회에
후보자의
좌석을
하서
중앙의
연구용역을
자치경찰
부분에서는
##의식을
##ha
수립해
해봤
주장하고
바다를
##크라
중반
##소개
평가와
사회적인
위원장님께서
##지원단
살처분
생체
옛날에는
##분기
넓고
행위자를
취해
남양주시
줄은
##AE
제고하고
북부지역
대치
##들인
속담
투명성을
갔다가
않겠습니다
##컨벤션
정직
##축이
##취약계층
방에
##국도
개최하였다
전남을
법률안
의복
법률적
##복지관
수용할
##성이나
재난관리책임
대가를
##었다가
매진
좌측
와서는
토지수용
실정이다
학예
변경하려는
과제는
##절제
와이
설정을
크리스
com
협조가
##부서에서
수년
불이행
부산시에
보일러
거기다
구조물
뜻하는
채증법칙
지목
비유
가로수
##까지를
학교안전
지나고
년생
정보통신망을
제공에
서는
중심지
창출하는
통행료
명이며
경제적으로
선생의
초기에는
인테
경향을
도조례
불렀
원칙이
하류
운영한다고
발전소
##문화예술
쓰인다
##청구권을
영향력을
##대학의
중엽
이루어지도록
봤더니
특성과
##표가
탈출
존재를
특별대책
간략히
사당
##협상
부여하고
모두에
경기복지
그리는
받았음
##농도
제공하여야
해명
생명의
토끼
##하겠습니까
미분양
소하천
과실이
나가면
##면적이
전기자동차
BTL
본부장님이
인체에
지친
##플릿
##사업인
구분소유
틀린
여부가
낮고
거문
상황이다
원리금
##스럽고
말과
담당자가
##eg
##들이다
운영하며
감안해
확대되고
##방울
않은데
수교
단행
위상
돌아오는
공무원에게
이루어지
국민건강보험
긍정적
정을
시간으로
맺은
사지
##신으로
##DB
통해서도
행사와
포트
##대회에서
나와요
보장하고
요즘에
As
받으셨
추진해야
상품권
내각
명문
##ok
학점
운동이
거울
##판결을
과제가
##기자재
##ff
주요내용
수선
회의실에서
예능
실감
엿볼
의하는
매각을
##했습니다만
여행을
올립니다
범위와
산업과
일부개정법률
시행계획을
##린지
지원방안
방수
코엑스
징수결정
간척
고구마
관세법
입목
대구소방
인정하여
갑작
판소리
자연과
성과평가
GTX
##지방재정
반가
발라
남아있는
근절을
##비용이
모인
##투자를
##값이
이쪽으로
##씨가
생각하거든요
감소로
행정관리국장
##벌레
구분된다
내려와
검토의견을
듣기
##내어
질문드리겠습니다
서해안
연정
녹화
이때에
세워야
두되
안내문
세입예산은
##파는
동결
매번
##민정
성주
개정한
농림축산식품부장관
평가의
시군구
##ice
어디까지나
조례안이
총리령으로
가루
문화콘텐츠
##장한
##언스
모른다
그때에
회사에서
지도감독
내렸다
사임
불러서
의사진행을
드리고자
월급
계몽
실시하도록
어때
실물
가구의
지급되는
##언이
사람이나
많으신
원만하게
준공을
개정안에
네모
감소하고
맡게
세미
공유할
그것으로
거주지
매뉴얼을
##그라
얻게
졸업하고
##본의
##상공회의소
파고
조금도
토론이
떼어
마이너
선박소유
주머니
조정의
적의
##소리를
##그러
##공화국
##크를
나가겠음
무섭
하겠습니까
수동
##이냐
있었는지
별첨
현판
개정규정에도
##속에서
부족하다
등록에
무산
##현장의
##공원이
보라매
계획안을
접할
모색하는
한국전력
해는
톡톡
좋겠다고
편성되었습니다
믿는
맡는
메카
피드
허위의
환경정책
보건위생
고고
모두를
억에서
##합시다
체계적이고
주의가
차지했다
##받거나
개선하여
도우미
책으로
구축이
해소와
얼굴은
대회의실에서
아직까지는
유럽연합
옥개
자갈
그들에게
도와주
##석탑
영사
왕복
회원이
체결할
정지를
이룰
##연수를
헌법소
초청해
연애
의원님들이
##옵소서
편의점
가슴을
없으시면
서울시에서는
합시다
다이어
제공되는
모두의
일정이
추진계획을
Un
가액
해발
위원님과
설명하는
부조
출연기관
의구
번째로는
오게
건너가
계속할
##규모는
상회
지내는
##허브
눈높이에
서명을
##선거에
##미래
##병은
이같이
##있다
제고와
도모하는
수단을
것인바
##연도에
수렴하여
주민소환
우즈베
보고하여
근원
행복주택
체불
자녀의
일반직공무원으로
사퇴
##ac
지역에는
위반으로
전입금
우선순위를
모으고
논의하기
##EP
##계에서
필요함
저조한
투자신탁
주도록
사건과
사고에
그것과
주둔
##국적
##중공업
아니하게
오라
증가를
허위로
나타남
검토보고해
귀를
했잖아요
건축사
##작으로
복지국장
##시어
어릴
일어서
본건
끝을
##위성
구분을
교류가
뉴질랜드
지반
테마파크
리스트
심의하기
##중계
##망에
전문의
등기의
접근성이
##하이
생산이
글자
수문
어마
눈물이
막걸
경영의
죽음을
##령은
두게
##증서
산업용
재판에
노르
중앙회
광해군
##작전
져야
구입하는
##워요
##보고서를
제한하고
기획단장
##ence
팔당수질개선
비수도권
##행정과장
##취급
정비하고
억지로
위한이
플래
외자
광주전남
사범
기술에
사항인데
계속하고
주택건설
나트
증인이
출토된
겁니다은
상임위원
사장은
예의
유력
합당
평택시
존엄
도내에
세밀하게
약제
합류
장학금을
이것만
증액을
꽃을
분야에서는
않으므로
발생했다
의료기관의
공청회를
##크로
살아가
##되었는지
보호할
있겠느냐
법학
베를
동굴
피로
##연구센터
학생에
경쟁력이
없으시
부제
선호하는
내에서는
용품
##투자회사
지옥
테니
인천공항
짚어
바라보는
정전
지시에
##세무
결함
평이
##업자에게
##직무
지표를
보건복지부는
세워진
합니다마는
크로
제고에
걸릴
밑으로
대대적으로
한국도자재단
기에
숙박시설
김영
인지도
절차의
행사장
미치
##거부
요구는
##물며
사용으로
대응하여
단의
##피해를
진로체험
강변
물동
인정되지
전하고
부문에
아쉽
범위안에서
주에
종종
국보
처럼
인정되면
일에서
정황
##조명
말하였다
사업시행자
사용자가
부재자
길러
교통국
생산에
##사업무
이용하기
점검은
관계기관
부모가족
받들어
업자
규정과
가치와
북부소방재난
개수
두꺼
압박
시비를
거짓말
##남부
권한에
앉은
고독
문제들이
폴란드
##스럽습니다
##을까
이대로
MBC
하동
##정산
프랜차이즈
보건복지여성
##병원을
##졌다는
들어보
주변에서
역할은
말이다
추진하겠다
리가
##전형
송치
여러분을
##율의
삼았다
천연가스
구금
코스닥
뒤쪽
개정하는
않으냐
주택도시공사
중국어
효과도
좋지만
##묘지
##공공
종합소득
특급
하계
차원에서도
##왔던
교통관리
행형
##증권을
##하소서
송구
합하여
##엑스포
길은
##부채
신고된
크기가
누구를
영도
아니며
맞물
청장은
실시함
의견과
농가는
그치지
양해각서
##하든지
진행하여
학위
통과가
육성사업
구간이
가구를
놓았다
발생하였습니다
광주광역시
그다음에는
주거지
##문제에
면적의
공식적인
##집으로
통합방위
특징이
규장
채로
거둔
기분이
공직선거법
수난
인력과
절도
품고
꽃은
가슴에
기명날인
메이커
사업시행자가
한반도의
홍보활동을
준공이
여론조사
없던
무기계약
소화기
사례도
경쟁이
소진
##론이
보편적
포토
선진화
##었는데요
약칭
정선
조만
상대방에게
예방할
위생관리
총액은
##치산자
상임위에서
나가지
명인
건의안
전시회를
응하지
거리에
시간대
받았다고
가나
변환
경기를
배우는
한으로
인식개선
##뉴스
검사에
협의회의
막는
##센터로
비만
일시에
검토는
총회의
사용하게
이리하여
책임운영
농가를
재외국민
병원이
유인물
별개로
조합원의
시술
당뇨병
운영하면서
청취하고
경각심을
신제품
자산의
자녀가
공장이
간병
해소에
사무에
행사에서는
존치
구성되며
들지
힘썼
기록된
대외협력
##종말
##마가
공민왕
철원
근거한
##길에
신을
신고할
주제는
나서서
늘릴
지난해부터
##중에는
불편함이
##절로
교통행정
불우
미지급
수립된
##원장은
시민건강국장
##한국
여성가족재단
옥수수
해줬
특성화고
적시
##걸음
게임을
남긴
사건으로
개정하여
협의체를
대상자로
발표하였다
거라는
##증에
요청받은
성장과
차입금
양의
##진압
내용이나
중요성이
기사가
보완해
아동보호
예상이
의원님께서는
PD
설치한다
##공무원의
예산만
해보겠습니다
##파이
시행되고
장려금
서울시민의
중앙정부의
내수면
연세
세대를
여기를
KI
종류는
발레
##히지
부산은
카드를
##특별위원회
##육상
##무효
가지시고
명실상부
싶을
##적이며
절충
토지는
구정
잠을
양벌
격려를
##만으로도
파면
달라진
DNA
##지원과
맡기
삭제하고
생각하기에는
행정기관에
의자
편안하게
사업장을
형성되어
소통하고
먹기
##변호사
##터가
##렸을
##방과
시간의
방음
유용한
있겠다
기아
##씨는
드리며
당연직
옹진
정관이
##통이
대신하여
##됐기
제시된
보증을
가상현실
모두에게
법령과의
##스카
##심하게
쟁점
사물
삼성전자
비산
우수기업
일까지는
돌아다니
##가리
차상위계층
CP
스위스
탐구
강행
산수
##요소
##불명
시행전에
##물질을
지나는
개편을
구하고
맞이하는
보장하기
##하기로는
용의는
이모
진료소
배임
백신을
##진술
강조하였다
주인이
해결해야
산림자원
씨앗
부담하고
발견한
불어
물량을
느다
점진적으로
##끄럽
두어야
심야
경기지역
다방
시설에서
##았다고
건립에
재단에
Wor
##찬을
업무정지
##개요
##반은
##조와
서울형
악성
##후생
위반행위
작품의
농어촌정비법
설명할
자연재난
자고
한림
날카
팔아
##교부금
크리에
기후변화에
잠실
미래창조과학부장관
권유
임대를
비는
주목을
용역의
그녀는
##천과
실시하였다
복지여성실장
송금
해상풍
년까지는
송나라
##이지요
##있고
임대료를
자치구에
장방
일부로
##체계도버튼
##급여를
순세계잉여
계정
속도가
자본주의
제출은
없어지고
편중
결국에는
요즈
사업시행자는
안타깝게
##법인은
##봉을
시찰
대응이
했지요
소방학교
동을
머릿
위임된
그렇다는
센서
##널무덤
접촉을
비타민
집행잔액은
수정안에
##화재
부분까지
##들한테는
제청사
사항이기
났을
접근할
조문체계도버튼
원도심
제휴
저지른
시행해
추세를
눈은
년에도
평가된다
단체에서
발표가
##업체는
쓰이고
전문직
정량
메타버스
이사를
부러
무의
하물며
문교
주택에
연도의
운영위원
양여
갖지
##념을
해보고
최소화를
시식
수치가
의결한다
승소
토지와
모기
##부상
개혁을
가난한
여학생
숨김
단순하게
중요하게
모방
동안은
불공정거래
올해부터는
고찰
실리
서면을
흙을
나무가
##온데
멋진
##체와
기초연구
폐지하고
농작
거쳤
실시계획의
역사에
저작권법
정기적인
랜드
경기도립
부문에서
카자흐스탄
해놨
##공유
이틀간
부서를
##화상
시에도
##전산
##화도
년도의
옥외광고물
해양경찰청
문과에
머물러
지킴이
이용자에게
선정되었다
이북
피고에
##겠는데요
창구
빛이
있었으므로
공양
장애인을
##ER
합의에
덴마크
방영
##역은
##국사
맛있는
행정사무감사에
##책임자
얻기
올려서
변경하여
식품위생법
보기는
##창의
##하겠으며
##창고
청구인의
##기반을
강조하면서
환지
단가가
청년창업
케어
##렸던
##비전센터
매점
났다
현충
재판의
농업용
자라는
##ex
사외
개인적
운동의
국토해양부령으로
경안
노력도
그분들의
이뤄졌다
소가
참여한다
기상청
##도매시장
##원자
##일으
장관상
이지
##입을
신설된
짐승
##EZ
피곤
어디가
가벼운
발전기획실장
오수
마찬가지고
총독
지원했다
징계를
파티
살리
##방식을
지키지
어머니의
구슬
부흥
내구연한
맡았다
하수처리장
기술심사
현황입니다
도시개발공사
경비는
하였다고
##덕왕
퇴직금
축산업
반포
##헬기
지난번에도
##움과
걸맞은
문득
##분들
조사의
선서를
홈페이지에서
감추
##발굴
규제가
책상
경비의
서울과
US
작성하는
##노총
경기농
화물차
##데이트
민간에
강서구
시작되었다
수돗물을
다르기
##기구를
세자
##테마
울산시
배열
성격의
##에스
점검과
##미의
위해서다
##출장
##플랫폼
있냐
##되었거나
재미있는
발언대에
절대적으로
양측은
숫자는
유물이
직업능력
##내에서
포함되는
앞의
높아질
주소지
마리를
지어서
특사
지도와
도장
##매장
##으로부터의
중요하고
건가
상관이
연구해
고시한
억인데
국가재정
참석할
이끄
하셨습니까
장안
헌재
숙원
기념행사
관광객을
그랬어요
법률과의
양성에
궁금합니다
건설교통부
지었다
하천관리
공기가
원장이
획일
발표는
내기
기술은
m에
##비에서
당부를
##받는다
제도적인
쉬는
달고
##변동
메트로
##드박스
서약
육아휴직
##었습니까
임용된
날씨가
춘향
##겨서
##ill
되었는지
##버리면
다니고
소론과
##하지도
저거
반복적으로
정무부
##구축
나간다
조금은
반발
##속이
##임시
약정이
도입하고
공공기관에
햇빛
##화해서
##천은
##하셨던
들어가는데
장애를
아니니까
농업과
탑신
일으킨
유급
위험성이
##블록
될까
소유자의
늘리
먹지
소통이
사채
해제를
##하고의
##라니
조를
##간접
증가함에
광역자치단체
증인선
산림청장은
나간다는
북경
쳐서
##대고
타당성이
고층
원어민
합한
##졌어요
되겠지요
친히
본부는
##단장은
그전에는
진열
여야
조그만
식재료
논의하였음
##지구에
세미나를
소폭
판매할
주민들을
##ran
##글로
준비한
각계각
##단체장
대나무
선거를
위원님들께서는
반월
싶지
##가격을
금산
자금조달
자료에는
원효
수록된
개발사업의
서재
받으면서
내역에
기초를
탁월한
다하여
##종에
폐교
이행할
법리오해의
##유적
시행되기
시에서도
##검정
##지점
##계장
아니하며
대응한
주최하는
남편이
사람한테
패러다임
프랑스의
##론에
원고에
##태평
총무과
영역에
확고
육성하는
확산으로
##사건에
안경
데에서
말씀하세요
대구는
체크를
징수를
소방차
영의
##터스
위해를
싶다는
공정위는
상서
실시되는
민사집행법
옆에서
집단에
끊어
##신문고
집권
채색
부산시는
작가의
##졌음
##치와
검토와
교수의
관상
안장
나오기
그만두
명목으로
신설하여
누리과정
철거를
##죄를
끼고
용의가
##긴다
부드러운
##공원에서
지출을
챙기
국무조정실
레벨
증가와
고인돌
##토론회
우선순위
평의
군으로
밑의
이르되
중기지방재정
억여
융자금
##영업
근접
납득
공정성을
강조하며
##산림자원
내성
감독한다
##명령의
##과제로
개정안이
도입하는
말씀드릴게요
##조회
나을
위원에
##절이
보고서가
공간에서
##ef
금융상품
GH
가보면
따라가
답변드리도록
아비
개소에서
주장할
##전도
양곡
연구과제
성과는
프리미
방울
확인하여
눈물
발생하게
개발은
##는지에
##피고
다루고
오스트리아
다룬
생산하고
##ast
답이
측에
외교장관
없어야
친생
##전력
등록의
종중
보장하는
되었으나
국장께서
착공을
법정대리
대차
확정하고
뒤의
보충질의를
동요
중소기업청
SC
##직할
위촉하는
반대의
사각
면담을
북미
##드라
먹은
불구
퀴즈
대대적인
노점
##용의
보았습니다
죽어
일제강점기
업데이트
En
몸은
##영어
전반의
신중을
왔기
발현
감이
국장님은
미래형
정상회담
예루
정부를
건의했다
급이
협회는
텍스트
당직
제소
아파트에
연초
경영지원
지구를
##케이
실시하게
새우
##리케이션
이동을
묶어서
불러일으
작년부터
나왔어요
매매계약
조로
생각하시
데이터가
설립할
##군수
추진입니다
사항도
증명서를
추가경정예산안을
##았어요
민간에서
토종
유도할
자국
지속되고
계획서를
##드렸습니다
증진과
경기도의회사무처
도리
기대함
출토되었다
수질검사
것에서
기본이
공학
만성질환
부인이
##판으로
정권
피를
협회의
##양의
미래지향
관이
방조
농가에서
격차
등임
시유
마련하였다
온다
감안을
대표님
속하지
##밀착
소청
간행된
궁금해서
##시니
신청인이
##품에
여보
초중
##세종
체신
##들여
하반기에는
후유
생겨서
실내공기
배치하고
성분이
동물의
담합
##공원은
서산
포함된다
연소
참석자들은
소독제를
##테면
채권자의
달러를
피복
웃음
기온이
극장
입에
##재개발
나라는
보금
합해서
신주
군대
최하
배출량
초부터
##산업은
종에
이야기도
##일수
금천
상식적으로
압축
행정적인
주택국장
피해에
지역사회에
보관하고
셔틀
##적십자
시점이
홍보기획관
정리해서
원년
천년
##이신
##연락
##승계
##길래
연예
부과를
만들었습니다
실기
##단속을
문화에
본청에서
##르며
인천시가
탄력적으로
##답을
교통이
협력하기로
##병에
대법관의
주상
용역에
자유학기
층으로
물과
역동
소개와
충무
##디지털
규칙이
대응체계
범칙
CJ
한국전쟁
##산맥
##중단
##죄에
청소년이
비교하여
중생
##지킴이
올리면
상의를
개선으로
국민주택
##둘러
사업용
비과세
보아서
##첩을
대구가
내려왔
유도를
되겠습니다만
동학
포르
냄새가
당당
##ID
조광
##지거나
구매할
측면도
만나고
체납액
##교육원장
실천하는
신보
##특화
나는데
증거로
학교도
Al
to
사장이
재산은
위탁운영
관리조례
산업통상자원부장관
##맞춤
독립을
낙엽
영화를
연초에
잘할
약자
열정
화랑
빗물
회원의
기한을
깨끗하고
##변의
HA
예정이라고
증감률
유익한
하였을
납부를
얘기해서
수익자
##과목
저당권
나타나지
죄는
재심의
왕을
##사범
산림환경
분기별
지원입니다
의사일정을
세상이
##지역과
이만큼
조림
치료에
관광국
삼을
이사의
정하지
애정을
월로
질소
전쟁을
##집은
기피한
내역이
사회참여
간접적으로
도시공사
모집을
##기록물
참전용
불공
적용되지
문체부
##음식점
##해온
##ak
수출액
##어음
국제사회의
국립환경
법상
수립해서
업계의
취합
부분이라고
천재지
제한에
속한다
헌마
여하튼
없어진
경직
금년에도
##하자고
일대의
화재로
발자
##판서
보십니까
강구하여야
있었습니까
##덩이
현안을
##극장
고견을
평상시
바닥에
불꽃
뜻에
여기서는
의미의
더불어민주당
좋겠고
비어
이순
도시공간
##생물자원
세대의
##공무원으로
어류
공중보건
##MO
위원회와
##러리
영역에서
견해는
##광을
더불어서
전자정부법
정신질환
청년층
전자우편
모집한다고
혐오
합동점검
수락
##갑니까
가져온
##사항과
명예퇴직
장점
결산검사
미납
생각보다
인해서도
위중증
장면
의회와
데다
거칠
소작
농도
계약서를
엄격히
##자매
의무는
시니어
논란
사항들을
양극
파란
시설도
소유자는
양국의
재산상의
계측
산림자원의
구축하기
빨라
##할까
보건복지부장관은
안전기준
지식재산
영화의
제공과
설립등기를
##향하여
생각합니까
제기하는
##등으로
방침에
지사의
영월
받는데
이를테면
예술인
답변하여
##관리시스템
원하시면
##강이
혁신적
유통을
예산안의
수정안을
완성된
강당
판단해서
인천경제자유구역
##ens
노트
권역별로
사항들이
위원장에게
서울신용보증재단
종합평가
기획재정부장관
폐회
그랬습니다
시책에
관련은
확보된
연락처
##수집
##받아야
아이디어가
##모의
자치위원회
표현하는
체납처분의
회째를
듯하다
사회통합
건도
##되길
국제화
위치정보
의거한
적발된
중형
품종을
장에서
단지가
##드기
거두고
##현의
대부분을
민사소송
평균기온
급변하는
풍력
##업체와
##보험에
Pl
코로나바이러스감염증
장려상
값을
##자산관리
일손
바꿔야
죽이고
경전철
##IT
##보좌관
입영
순천만
쓰인
공유수
##당국
가속화
신규채용
##불이행
대표이사는
부결
실험실
##OD
놀랐
##으리라
손해배상을
실시된
##지구로
많거든요
##의사
##견과
낫지
놨습니다
복장
교육원
산후
시민들과
종사자의
지난해에는
분석이
##증은
마트
지평
##타임
동감
##매출
관리국장
##보호에
부정적
마련하여야
증거에
일어나자
주문을
소각장
구실을
함길
##지노
특위
##연구원에
연수원
양심
##해라
##두를
##존불
##ib
이사장이
빌려서
심의위원회의
도시계획과장
원종
수입으로
어긋나
낭만
마일
지연손해
금지하고
어장
올해의
등지에서
##연설
방문은
인물이
일본이
같을
티켓
숨어
전개하고
##구입
수준에서
요즘은
##검사의
실버
쪽까지
##관리원
이사는
제공하거나
인증서
서울이
전라남도지사는
간소
제조제항제호부터
주위에
선생은
외국인이
것이라면
##산지
동참해
제외는
##구리
##시대를
급히
질문해
맡아서
서울은
제작에
금융권
##병으로
민원처리
지출한
감독에
##협의를
##궁의
전자서명
담임
##이던
##치유
간담회는
수와
운영자
레이저
초동
생각으로는
조합이
드렸습니다만
배려를
역량이
중장년
##대상이
##편으로
흰색
눈길을
배타적
정사
축사를
시군을
잘못을
##적에
견디
거라으로
전이
행할
##평가원
위험에
위장
차적으로
##혀서
검토하는
되겠네요
점용허가
기관이나
취락
재배면적
비전과
##혜택
신고에
자리는
말기
##채무의
##가액
##하셨습니까
파악하기
임원이
흘러내
심의회
성산
장관을
BC
관내에
공직자윤리
상환을
득표
말씀드려서
고효율
##시키고자
강조하는
시내에
##담을
않는데
조사할
##내의
지원받아
건설기술
공개하는
유통기한
앞쪽
경제정책
##자료에
농축산
여행사
낮춰
##겠지
##러한
노인의
방출
유일의
안됩니다
피고인에
고용을
힘으로
##국토
##사주
##랑을
불의
도시에
승리
부원
정복
키우
잔존
집필
병역법
군포시
김일
대항할
회장이
단계부터
##교와
농촌체험
외화
자가용
그밖에
##영의
경기중소기업종합지원센터
중산
작업에
군용
##제도는
##석에서
생각하며
수은
시대에는
##입찰을
리스
모색하기
설립이
오버
한도를
국적을
책자를
해양수산부는
끌려
한마음
유능한
불균
하늘에
국사
사업자등록
의결해
연구원의
밀폐
시기의
연구원이
가할
발전방안
세기의
함에도
차액
경희
떨어질
전염
말라고
모로
의원님들
자율적
안성시
수영장
기대효과
남편의
릴레이
소신
행정서비스
미스
건설하는
##건물의
만장
오사
박스
수서
자율주행차
의금
##건수
지역도
이외에는
반성
##겠고
수레
##our
정문
##본부를
수인
보냈다
정신과
아니겠어요
친근
장소는
한복
가짜
출입을
시장과
발달장애
세액공제
##전략을
압록
현재까지는
##사무소의
당사자에게
구역에
감사드린다
해준
올라갔
같다고
호스
##일과
빛나는
##통화
이니
것보다도
고엽
##동포
운동은
월을
않은가
계양
구는
물량이
설계도
박물관에
보시기
상충
걸림
등본
조직은
알뜰
##하였지만
대출금
모델로
정비가
##비즈
방지에
전달했다
이끄는
한파
신석기
클린
용접
주역
전문위원의
전쟁이
생각에서
##민속
위원에게
보완하고
##학위
지명하는
의식이
참여하게
하나님을
맑고
신고서
경찰의
종류에
마을이
스티커
본다가
조개
금융감독위원회
결집
##일간
##회의는
대당
편에
##지하
실시함에
한창
##현대
원밖에
깔끔
건강가정
##총독
소재를
당초예산에
옵니다
##비율이
##식당
업무집행
어머
내포
동해안
##부족
시행하기
##제국
말씀으로
##품은
버렸다
신설하는
##yst
연계하는
CT
확충과
보좌한다
전문성과
공무원연금
접근이
추진단장
소관입니다
도박
때나
중세
공사장
공익근무
영수증
아아
보사환경
##도급
분석과
구조는
생각되는데
수출은
한국토지주택공사
만드는데
##ata
이보다
##안심
위원들의
##셨죠
경우이다
부서별로
문서의
일컬
특기
프린팅
닦아
사업별로
독립유공자
제자에
품질이
거나
##사이클
산간
##신호
경제투자실장
숨은
가구가
의하지
돋보
알아요
첫날
회복에
통상적인
역설
몰라요
대해여
돌아보
보완이
말이지
주제발표
대비하기
중인데
표현은
것으로는
참여형
중요성
##역사박물관
소외된
출석하지
창덕
지난해까지
##환경에
북부청사
농림부
고객의
로컬푸드
기업구조조정
##현장에
##변이
이도
##OP
##하였는바
시행계획의
과로
쌓고
일원화
##보장에
##타르
위원과
안전체험
전반을
특별자치
중앙관서의
공유수면매립
면직
위반행위의
결산을
착용하고
노령
양양
##방학
고기를
농업협동조합
보트
##등과
용역은
여기저
선박에
내국인
제재를
집행부에
방문할
완료되면
숲을
화강암
벌여
지방공사
매출을
주요업무보고
원자력안전
다섯째
발굴된
계상된
공로를
할부
일으키는
되겠다고
확정한
규장각
무작
한문
구내
기술로
경찰에
동문
수렴하고
고립
작게
공개할
편안한
##lob
##슬러
##사업화
개선될
사용해야
클래식
고객이
하한
제주형
##활력
국립대학
식품의
의원과
행사도
요건이
코드
##운이
백성들이
취하는
크는
중요시
찾아가서
거점으로
있었죠
신문을
##복원
결산서
진료비
감싸
받아가지고
봄에
신부
대상의
징수하는
삼십
치과의
폭우
좋아서
계상이
신분을
자치분권
백성이
##출입
손수
투입을
느끼게
조제
용도변경
확충에
임명되었다
운영입니다
도모할
##ust
시각장애인
조선총독
확산과
간격으로
##기술원
기준의
반응이
사람이다
강간
##재료
이재
친수
##ass
적십자
자부심을
##메달
파출소
##수소
어린이들이
재질
##상도
##체어
도서관을
공무원들은
하늘이
전속
젊은이
배수로
계명
비자
한숨
교화
##환경개선
##잡이
제작하는
교육감은
##견에
삶과
순서대로
개발도상
개소와
##도시계획
똑똑
기록은
유비
##르다
말씀한
##집의
원고들의
보완할
대답하기를
액수
확정을
국정과제
창단
##평생교육
목이
##책으로
당첨
매니
##사업도
항행
##보통
되돌아
전업
배관
##리나
##파일
어가
인테리어
##악산
서남권
구분해
자연의
학교별로
종교적
##구장
국민학교
경비가
건축을
##일자리
반기
##유사
시외
##루는
때만
##했다면
남북한
제외된다
당하고
하와
수월
법인이나
##루미
토지거래
관용구
이곳을
영농조합
존속하는
용량
디자이너
설명과
서식에
못하은
불린다
담을
추진된다
산업으로
협의에
전까지는
소재지를
번거
전하께서
단말기
포럼은
나가는데
분양을
징수에
##르트
용기를
국화
감성
달라지는
달러로
프라
직업재활
당시는
##유럽
없어도
태그
경산
있겠습니다만
아토
주거나
양도하는
이해관계가
##단가
부적법
실국
분쟁의
##직하고
선거운동
무궁화
제천
해외에서
부작
##유림
계신지
까닭에
의사표시를
년제
아동을
관문
칠성
##하겠지만
##학술
것인가에
원리를
##판의
금감원
##채무를
##합리
##이었음
어떡
이에게
의료인
##왕을
희망의
어마어
미션
받으며
중에서는
##환을
제주지역
출범한
진입로
동무
집어
조세특례제한법
직계존
달성군
분쟁조정
##습을
전남도와
##먹고
질문은
어려움에
성곽
정의는
일문일답식으로
청구는
통과를
잎이
거대
선인
유지하면서
현직
Co
예상됨
선임의
필수적
개발이익
산업혁
##서기
##원칙
UAE
임차료
에어컨
사용되었다
건강하게
직결되는
청춘
하순
강소기업
그래가지고
청문을
##부인
잔류농약
##CCP
##으러
##조사와
##녀가
그때도
내용이다
비영리법인
고려로
인터넷을
##한다든가
강제집행
파산선고를
병설
질병관리청
CC
양벌규정
후반기
##졌기
경기교육
폐차
만호
채권에
당사국은
의심되는
계약은
날의
대표하여
인상이
기본설계
거래의
지나친
고생을
##망과
전통적
제고하기
여론을
세력이
자급
지원하게
##요구를
연계가
의결에
설립과
중요하다는
전자거래
본부장님께서
표고
신용공여
장기화로
##신청서
제세
동물위생
초래할
실적에
빈틈
허가받은
예쁜
교통정책
앞에는
제호나
##로부터의
침투
죄의
끼워
사장님이
해고
상감
그다지
철도항만
##대회가
식육
##들께서도
하하
국방부는
시멘트
덮어
아이들은
공인중개
맥주
섞어
정부에서는
의료기관을
##분석을
영어마을
깨끗하게
페르
영상회의
기쁘게
건폐
휴지
CS
축산위생
드문
직에
이정
어렵기
음력
팔작
일정은
계상하였고
천개
예외적으로
연다
##되신
보유자
경우만
예년
해로
수리를
작성할
공모전을
산업재해보상
협력할
지역아동센터
던져
개발의
형질
사회는
가능하다는
부기
귀책
서울고법
넘어가겠습니다
기는
파라
크라우드
중위소득
##공신
권의
사후에
천장
후기에
도중에
관계자들이
기업에서
거리두기
행복청
취약계층의
두류
수긍이
공익을
증정
공정을
정보을
재정의
맛을
대주
성과관리
임명된
경제진흥본부장
##TF
부담하게
현원이
전략산업
나빠
##시책을
서울혁신
사용하면
직원으로
자유로
한국수자원
##체계가
행정자치부장관
표출
경기도지사가
간곡히
##조직을
삼국사기
권리에
비상임
칸막이
부담금을
감사한
예매
사람들과
대한민국이
따를
송정
##인프라
위하여는
사회복지사
##숭아
법인인
은행에
반사
사람들한테
보도자료를
경력을
실장님이
답변하는
교통체
주세요는
공기를
자랑스러운
감소가
KOT
성질을
농업을
산업구조
##사무관
건전성
##였어요
권고를
##나니
이마
개인위생
국비로
외투
주민센터
##니즘
##목과
사안에서
왔다고
중소기업과
이바지함을
시하고
어저께
열두
##으세요
축제의
여자는
산업국장
협력으로
하에서
갑질
도약을
방지할
불평
앞둔
안정에
##부정
감량
공단이
법인세법
동대
우리나라를
가르치는
단호
크기로
가능성도
추경에서
응급조치
출석을
손해의
간행한
여성들이
정거
약정을
지킬
개사를
##어와
제품으로
포럼을
##교육기관
트럭
제출하게
프리미엄
변호인
있었음을
##운동장
공시가
이장
공단에
##oc
공중위생
검찰청
높음
사업들은
어디서나
해촉
휴회
발생률
도시교통실장
일원에
이제까지
갔는데
말하지
위는
등입니다
감옥
##느니
##힌다
맞는데
##층석탑
승계한다
만개
##상대
민원인
고도의
지원해서
위원님들께서도
해병
사고의
단장님
바다에
베를린
조치의
대리인이
설치해서
마찰
해양관광
##비나
서류심사
##태평양
넘기
침범
협찬
교사를
방청
보이스
팩스
후진
보여준
예방수칙
미국에서
배웠
진사
주민에게
도와주는
심사와
야생동물
꿈의
검토하겠습니다
기어
주임
여러분도
제채무
이러이
##의료기관
문구
서울교통공사
변경으로
안정된
##날을
사업설명서
환송하기로
##발급
추가하여
##ear
농업기반
통과한
대책의
Tra
광안
##IP
쪽에는
제안이
신남
투자에
산을
국유림
공연은
##자리를
조치법
선박을
##정류
아내가
계십니다만
성과급
항공교통
##론은
보고서는
서비스와
##관리사업소장
여수세계
하늘의
무시하고
남극
도시주택국장
##곡이
##상품의
올라가서
주파수
##버려
받음
수기
구해
절제
##lobal
공공건축
##상태를
설화
호가
기반시설
하드웨어
소기업
##ld
향후에도
제항제호부터
대불
전년보다
허물
##씨를
위반하는
근처에
되기도
원자재
민간위원
너무도
사안을
규정으로
재난이
강령
대웅전
변함
연대는
통보하고
약속한
조합은
##감호
주요업무를
위법한
맞추어서
소는
심하게
##전부터
동계올림픽
맞도록
계신데
고개
아님
개최하였음
확인되지
부지는
무엇이냐
서울시립대학교
지방법원
##덕을
요청하고
남쪽에
지역인
전기통신사업법
영천
감액이
실수
##대조
넘어갈
과오
그분들
마찬가지이다
마중
펀딩
적용해
버스가
보강을
중앙정부에서
##층에
##주시기를
합의한
반영하기
기대가
안건이
개최는
육성해
목격
근거에
식품을
예견
체납처분
시청자
##ood
학교장
성향
조금이나마
정도까지
효력은
시간적
##란한
정밀안전
나한테
동탄
봉건
타깃
채용할
종료를
복지건강국장
외국인의
하신다고
병자
수표
곁에
열람할
LA
고질
해충
이상일
되고자
##위한
주길
재심사
부족하다고
##과학기술원
수칙을
독점규제
이야기할
Intern
빠짐
어학
효율적이고
##보상에
데이터는
이사회에
송부하여야
대구에
정작
전문적
##발언
체온
##ud
주의해야
주민에
펼쳐진다
소득에
고향사랑
기르는
신용정보
유효한
감소하는
사업명세서
전남에
적절하지
같이한
산촌
퍼져
단지에
처장님
산림조합
심혈을
가정용
인력은
판단하여야
재산과
권을
##으시고
##ep
친척
방범
총괄하는
인정하지
고용부
퇴직연금
##행사에
##편을
예정되어
전남이
##재단의
##해석
구를
공사비가
##감소
맞는지
이남
펼쳤다
분쟁이
출가
##맥을
##됩니까
환경녹지국장
안내하고
공공서비스
성사
##결한
##내야
##비하고
##늦게
부위
##버린
##비율을
마음껏
구명
##아카데미
수행해
사회안전
해봐야
##업은
아메리카
##자료는
철수
제때
연구원은
예방하는
말씀만
##우며
충실한
다리가
참여하지
해수욕
짓을
당분
높다고
돌아왔다
변경하고
수용을
##소리가
계시기
지역사회와
불화
신체의
치열한
명하는
혁신의
##ant
##자산의
방사성폐기물
염소
##베리아
전역에
##해수
전해지고
창출할
학문을
##금액은
항체
소리는
##즈를
업무계획
비송
##부르크
등급으로
참여로
##유선
시범사업으로
대사헌
정성을
##은행에
복식
양상을
측면을
사용자의
혁신학교
저녁에
하급
부담해야
##인원이
실시하며
##관계는
이어졌다
표면에
거듭나
세대에
특별법에
대책과
전남도의
시정명령을
개발해서
원래의
반영하도록
능률
원장님께서
제조제호를
##LO
감사드리며
보셨습니까
지원하며
서비스로
제작해
예결위
##일인
알아볼
##되지는
국산화
##인력이
##직의
접근성을
폐기물을
농업에
##총장
관을
##면서요
##겠습니다마는
없더라도
다문화가정
고려사
##놓으면
냉방
아이돌
액화석유
하이브
사업자에
이용으로
일간의
사기를
주장하였다
손해배상청구
기관운영
상태는
미팅
##병원에서
체험학습
좋다는
##전선
정하여야
대구에서
결정하여야
감염병에
비교해서
명시되어
피고인에게
바이올
갔습니다
식물의
##상인
##주셨으면
##축산물
##도민
집행한
국방부장관은
정형
지역주민들의
배치하여
액화석유가스
철폐
##모로
##셀러
명예를
삶에
재정운영
받기로
통제를
##학급
사업들
참의
##지시
참가는
구입한
사업자를
정책금융
화를
##데믹
국가지정
##고와
조사하는
바꾼다
누워
변경하거나
유포
복지사
##설명회를
마칠
및의
소비자단체
##관리가
위반에
신진
애로를
처벌한다
확보는
기능보강
되풀이
감사와
천재지변
세부사업
드렸고
내용으로는
배의
증식
##일시
##았다는
예방적
서경
세입은
국립산림과학원
북측
현실입니다
명하거나
미쳤
자연을
견제
등와
성황리에
사흘
형태와
구청장의
집행부에서는
##성과를
시장님의
죽이
당진
항목은
않았어요
간혹
청자
영의정
실효성이
근심
신학
현지에서
당부드리겠습니다
##orm
소속기관의
사랑과
##됐어요
##인원은
등교
##부문의
해소하는
활성
없었는데
일본으로
재난에
고엽제
가에
한때에는
제거하고
##하리라
점검하여
법무부는
자율적인
##하여도
서울지방
설명드리면
워터
제호의서식
KOTRA
정유
사회기반
조언을
중앙정부에
주어진다
장미
구분해서
급하게
##개발에
심해
평야
알아보
항암
##국회의원
##ance
업체로
재항고
시계
예선
점자
##관리계획
GAP
발행을
돈도
작목
##법시행령
##수단을
농작업
융자를
##되었으므로
열리고
##사나
국내산
관광체육국장
강제로
종합적
원동
조례에서
지나가는
##금액에
강사를
외국환
측면에서는
동종
##규범
제언
##놓는
##화합
품목에
이산
화석
전수조사
아토피
받았어요
동반자
자수
비누
조선시대에는
수치를
인은
모르게
예산안이
깎아
화재진압
됨으로써
축제가
수렵
심의에
적용될
분실
후기의
관계자와
작성해
남자가
어르신들이
보급에
반야
아이들에게
##로만
입주를
선량한
##택트
제한된
볼이
소관이
세입이
##가치가
타인
편으로
쫓겨
##치며
##버렸
붙이고
치중
##할인
값이
여자의
레드
상황실에서
한국판
예방교육
제품과
##시험의
이공
습관
데이
머리카
미미
기울일
이웃을
교통약
원조
##승진
미국과
청와대
쳐다
지향하는
대강당에서
농악
##행정의
서예
발언해
중첩
##착오
군별로
층은
##공연을
끼친
##직렬
##증명서를
이사가
##과와
##본부장님
납득이
더더
복리후생
투입해서
삭감된
노선에
올해에
종합부동산
언젠
익숙
poem
동상
어깨를
##밀착형
##실에서는
돌출
부탁드리고
체험과
강점
기술력을
미국에
명실상부한
크기의
##머스
재난관리책임기관의
적용은
가곡
뿌리를
눈앞에
비용과
동항
재작
산림복지
고창
매립지
중심에
말씀하실
답변하실
##여부를
마련해야
##대회에
노동자의
##먹는
도시와
마련해서
스키
평에
개정할
나뉘어
명지
보도할
형편이
산림의
통일교육
대저
##궁을
확인되어
광범위한
며느
세라
책정을
##공감
주택임대
##통행
도서관이
권고할
관리사업소장
환경보호
동물보호
##도서관장
웹사이트
##였을
드리려고
취약계층을
가목
##어리
역사는
##사무소에
잡았다
내무국장
##사업입니다
구민
제철
##기법
양성하는
김진을
과도하게
수성구
방역조치
모신
##협회는
됐죠
철근
##사무소를
오미크
산정한
쇠고기
자연공원
휴대전화
경기도교육감
유치하는
경청해
옳다고
털이
서정
##경계
대한적십자
가든
금융위원회가
감가상
본인들이
견해가
안전관리에
참조해
잊어버
##랄까
이하에
##나물
기록했다
##기준의
여성을
기일
하역
보고의
함께는
인도의
방대한
장학생
협의할
일본과
빅데이터를
톤으로
발표와
석가모니
##테네
시행령에
불요
간과
저해하는
##지원과장
##처리장
리듬
회의장
그리스도의
부문의
산에
여름에
전광판
SS
기초생활수급자
현대자동차
담보를
ISO
과업
예산편성이
부탁드리고요
##협의회는
폭으로
##선열
##상품권
##완료
지출은
가이드라인을
입구에
장외
##테일
문화시설
못지않
구상을
큰일
보건복지부령
바라면서
징계의
시각장애
신고자
의사는
자기는
르네상스
대구도시철도
조례안과
포함을
##촉진에
설탕
국제적으로
일본군
공영주차장
원만을
장구
물건이
대한민국에
퇴직한
##ICE
개에서
등과의
보육교
주도로
위원님들을
기원하는
천연기념물
##공간이
의에
게다가
거두었다
##일수록
지장보살
진행되어
##예측
전년동월
이놈
심지어는
##테이션
측정을
메시지
통보받은
국장님께
##재단은
공익적
공략
발표하는
##대상은
현종
고용률
월세
퇴비
가을철
범어
##후군
##축을
가격의
꼼꼼하게
영수
완료를
실어
##수립
기본으로
창출하고
과태료가
산신
신화
##걸이
소송에
설립은
업을
응하여야
이자가
##경주
지원하기로
변호인의
총사업
세계로
고품
북항
##하듯이
김제
##물량
공개하고
인정된
딸을
이사회를
##었지요
kW
인사가
##행사로
개정규정을
교부하여야
막상
갈래
##합창
위원회로
하셨죠
결론은
까다
증대에
선정되는
EC
밤을
##광역시장
전반기
그때부터
사슴
탐사
경영개선
정수장
관장하는
복을
위반행위에
형제자매
벽돌
주도의
년여
중창
묵묵
속초
임진강
비상근무
비닐하우스
##원자력
영에
광물
바지
방송광고
##컴퓨
어째서
개만
선점
외형
초반
비효율
떨어지
간다고
방역을
이익의
내장
대군
남기고
##셨나요
용도를
거두어
##농가에
허가의
미국은
##영농
잠수
##문화가
준법
##오스
상황인데
백운
활용되고
피감사
좌우에
사나
##보와
##성분
상고이유에서
신분증
물어봤
예루살
규정함으로써
이야기해
국민권익위는
총회에서
위태
이루었다
##관리사업
담당자는
나름대로의
수요일
보다고
##요법
교육원장
연차별
재산상
아리랑
하기가
##ain
투자유
도로로
아래에서
마리나
인성교육
건축물이
부인은
##도시를
변화는
독자적으로
재확인
##기둥
##용량
운용하는
##증진을
##시키거나
환경부에서
힘들어
##워하는
타워
한국농어촌
무방
##인구가
근로복지
방법의
##비서
##심사위원회
바뀌어
m이다
사하
공공디자인
천지
그보다
비하면
마라톤
팀은
##과정의
신뢰성을
분담금
기금관리
세계화
확충하고
##드폰
반영되어
보조할
주시지요
피상속
걷어
공포후
시간제
기대할
이야기하고
익히
동의한
수화
킬로
감독이
동남아시아
즐겁게
##기에서
##중국
##폭이
해보니까
설정된
아파
평가받고
워킹
잘못하면
제안했다
덮개
##노화
담장
권익을
도조례로
가로등
따름
영상으로
광고물
근로자에게
날까지
품은
##품과
몸의
암호
유기적으로
##방송을
분쟁을
합격자
즉시항
##오면
##함에도
모델이
세계가
개념은
방위사업청
애플리케이션
##사무의
##협의회의
##한테도
처리해
게시판
부서는
받아도
언제쯤
가지지
확대는
부동
쪽에서는
##ult
공론화
##백화점
실시하지
청구한
경영안정
구부
직을
진흥원은
##ystem
인스타
제호는
솔루션
공사에서
다큐멘
체육대회
주민은
파악하는
소요가
물질이
당분간
HACCP
많지만
##조서
국장님께서는
하겠음
보금자리
##사리
후보자를
확고한
활동할
지난해보다
농업용수
맞나요
제기가
소유하는
용어는
주방
인건비는
똑같습니다
등록금
취득할
대도
구급차
##복이
시설물에
감소를
정치를
비상대비
##MA
감안할
전매
수단이
드리는데
가명
학교에서는
올렸습니다
##선거관리위원회는
##없다
제조제항제호중
답변하시
없애는
NG
내부통제
효력에
농공단
아이고
청원경찰
했다면
종합상황
귀찮
방으로
우크라
저번
##관인
걱정하시는
위탁한
의결한
실과
##기금을
대진
어떤지
준비는
불성
##맞게
주택정책실장
컨트롤타워
노력의
좌우로
기공
이해는
혼자서
대테러
원칙은
수업료
새겨진
##옵니까
후임
말라는
흐름에
미사일
##자마자
##레이트
##구역에
##색과
안양시
특강을
잘한
지원함으로써
전달할
장교
유동성
한국철도
연결을
짐작된다
##고용노동
설립하여
되겠어요
곳곳에서
그런가
수령한
시정질문
내외로
속이
구조적
근속
##씨의
알려졌다
밝혔습니다
과다한
누출
육체
사마
마른
의회는
연탄
실내체육
고로
숨을
갈음하겠습니다
농수산식품공사
경락
관리사업
특허청
고루
산이
숲길
##결정이
##역과
대학교수
꾸준한
##공제회
실망
##MP
친구가
종로구
공정거래위원회는
오디션
##목적을
##미세
업무을
변제를
##ical
석회
cm이다
설계용역
##영화제
도정에
시정이
피할
##후가
원망
운행하는
시기와
곤지
샤워
자나
##가야
산림법
제조업자
병행하여
농경지
딱딱
주겠다
추경이
##명령에
기다리는
##지상
않을까요
상처
##지방의
과세특례
설비의
추서
고속철도
우즈베키스탄
베이징
명예훼손
요망
민관협력
키우고
##간다는
메이크
##각으로
태안
많으면
제차관
##공화
##무기
##유전
효율을
##사찰
##리닉
전문상담
관광객들이
총동원
##너지를
##바퀴
##프린
전조
영종
달라서
##대병원
다른데
##불능
선택하여
우수기관
본점
붙여서
처리결과
내주
중식
법령으로
동의안은
둘러싸고
고유한
익명
##태세
지주회사
##당으로
적조
이어진
변명
면제한다
배상할
다단계
차후에
압도
지급받은
연해
속해
좋겠는데
주민들과
##나무는
실리콘
포괄적인
##성능
신청자
그분들은
우선하여
##경제를
원인과
군사적
나타났습니다
벽화
사업이기
##어린이집
환율
##값을
제발
지번
보고하는
악용
못하다
찾지
수입에
가열
##ark
주시를
합천
##검증
미래창조과학부장관은
재사용
##조직의
일기
확률이
대학은
물결
행복마을
지부
##상가
능력과
Global
대왕
매출액이
수없이
안된
주입
##공고를
##해야만
벌하는
발행할
거부하는
김천
폭포
##비한
부담은
이황
다가오는
관원
반도
피해는
본격화
서초구
##님도
중요하지
보궐선거
소비가
구석
##사적
##례로
공사로
가시적인
주민소환투표
울주
##매체를
공동주택의
불충
##권고
직무와
한국자산관리
정부세종
감염이
조용히
놨는데
삼천
수험생
흥미를
##회에서는
무선통신
작성하여야
문화복지국장
##정책이
차단하기
부득이하게
유인물에
귀여
개발사업을
입항
마리의
서둘러
일정으로
##급수
상에
인사말을
##예방을
##전파
피해자를
불확실한
자문위원회
##물질의
마련되었다
사계
##환경의
스프링
발맞춰
경품
군별
동방
##도우미
나왔던
항목으로
칼로
호랑
##방역대책
##문과에
발전방향
총예산
##관할
##구려
공경
뭐라
##설에
농특산물
OO
##사업자에
접종이
달서구
우크라이나
승인한
동등한
군대를
뿌려
##근무를
해당하여
ASF
곳입니다
이종
선생이
정의를
위원들은
##원가
##인으로서
태화
꿈꾸는
모스크
발발
규제자유
가까워
##축으로
너희를
불상의
울릉
나왔을
씨와
교육국
##부분을
목요일
##사전
사업이나
계상되어
##호텔에서
나타낸
Sh
재일
담당할
##표준화
기재하고
많이는
빠르고
더하여
낙후된
설치하여야
재정운용
점수가
가등기
받아들이지
독성
불로
피서
결혼이민
홍보자료
투입되는
활성화가
자기자본
어울림
기구의
후인
##됨을
와야
외부의
작성에
재난상황
체결하여
뽑는
감염경로
바르
##약의
불균형
설치되는
그렇게는
크리에이터
몸과
오늘날의
특례보증
해주셨으면
신선한
##리라는
##법인을
##혁신을
##제도에
##관리사
지급된
아태
추경예산에
장치가
성남시는
숨겨
잠복
마무리하고
모색하고
##남용
m를
뽑아서
폐기물의
기억하고
불용액은
움직임
섞여
##방지를
##본부와
##시킴으로써
##설턴
보건소에
없었다는
묻지
준비와
과감히
##하나요
쓰일
눈치
##였다는
##록을
심사는
저렴하게
게을리하지
듯하였다
우리와
개와
##피해가
확대해서
다도
재취업
전라남도와
서울역사박물관
##소득에
기술심사담당관
##창이
이거지요
모색해
종래의
간다는
들어보면
가능성은
바란
공직자의
제정이
성장하는
귀성객
금융감독원
보육교사
경기도도
문과
피부에
문자를
선택한
##교향악단
등기부
경비로
해당한
이번에도
이전한
IFEZ
차원이
##호흡기
요구하신
실력
일평균
후쿠시마
##으로만
규정하여
구성할
##피싱
가져왔
마인드
개인에
채무불이행
##유선방송
##명칭
받았던
불문하고
커서
그러냐면
부문은
전수조사를
나서고
세심하게
기대되는
고시가
한나라당
전조의
##층은
책임감을
시민소통기획관
##도시의
틀에서
애로사항이
날마다
외로
여쭤볼게요
신중히
인류의
십자가
공간정보
가리키는
##공은
강화입니다
관철
##등기에
하나님은
월은
차마
편성하였고
도에서도
출간
방송법
소리로
장갑
그려져
해상풍력
관계된
본부에
총수
띄우기
유럽의
##무형
데다가
전곡
소송대리
아미타불
교란
들었어요
##복의
경기도형
수소충전
비교할
오해를
자체로
내에는
투명하고
시간당
없습니다만
지경
전국체전
##예방법
경북대학교
초창
##강도
나게
건의할
##바이스
경기도민의
지나간
관계상
지정의
공공근로
협소
방침이
##규정이
내려서
애들이
여겠습니다
마무리를
남겼다
단체장
실용화
거부하거나
절의
백여
##성에서
투입이
민간위탁을
과징금의
병마
적다
##리더
문신
재청
참작하여
죄로
##범한
성격에
운영계획
곡물
해인
커뮤니케이션
##타를
##가치를
##충격
on
살아있는
특유의
사회관계
요인으로
추진하고자
미성년자
쪼개
자신에
에게는
웃었다
측이
##포인트
건설이
교황
났습니다
안전조치
위험도
회신
핵심은
기왕에
성형
불에
##국립
##오던
전남도립
원료로
신년
접어들
억원
조치하고
방을
적어야
일깨
말씀드렸는데
갑오
않아야
채굴
알레
책임지는
먹이
콘테스트
토대를
공산주의
##부스
##회도
의미와
테니스
##각에
윤곽
기술력
규제에
직업을
##풍의
##용지를
가지에
예방법
하반기부터
제공하고자
제출받은
매체를
##임용령
추운
관계관
##박이
##농업기술센터
원상회복
신청인
종합병원
곳과
장기화
자격요건
제곱미터
뛰어넘
설정한
세상에서
교부를
세율
##웠던
바치
민관합동
##실하고
알려주는
##수요를
동정
대행한다
전개해
당하는
##침에
적용함에
군데를
상담과
바뀌었다
지구는
국민투표
누구도
사주
냈다
무신
중대재해
구축한
향교
강화는
투약
##일까
조가
마찬가지가
방문의
##근로자의
통고
##부여
##협회가
##벽이
집사
운옥
신뢰받는
수반되는
김대
분자
지방자치단체에서
##법인에
구역의
달래
같거든요
공원이
##평가에
증명할
부시
증가하였음
##수요가
실행을
##학교에서
조합에
경영기획
베이스
복구를
##학년
서두
##사절
필요성은
공급자
임시로
이직
체제가
보아도
국가재정법
##RO
미진한
거처
다대
토요
호텔에서
완주
경찰이
공정거래에
우는
부주의
말씀입니까
경관을
도산
얘기입니까
침체된
년이나
개연
협조와
분리하여
품평
심사하여
위임한
주장한
##AT
도로점용
비교했을
입어
계장
모범사례
##상수도
의무의
조직으로
##파와
유무를
공공단체
##요인
해볼
한마디로
가다가
최우수상을
금융기관에
당부드리면서
시군별
초과현
시행되며
충실하게
잇따라
태어났다
뒤부터
##창업자
선거운동을
보건소에서
있겠는가
취득시효
민주화운동
도로공사
수렴을
##달아
여성회관
Sp
발굴조사
##담당자
있었습니다마는
불만을
##자금의
없었기
비송사건
아카
저작물은
파견된
##오며
복숭아
유지가
##가게
##싱턴
투자회사
직원과
돌아서
성장에
약화
매스
건교
진해
##하신다고
실천지침
작용을
법칙
두세
천태
교육지원국장
실력을
##터는
하기에는
필사본
요금이
전량
통하는
지적도
지역주민들이
##유관
자체사업
살펴본
조장
실시하였습니다
분들에게
##선충
삶이
강연을
국에서
영장
위기대응
구멍을
서서히
약용
안전망
등기가
병사
기정
필연
주택이
규제의
님이
등록기준
##쟁이
발생으로
통신과금
행사에서
예비비를
BB
금융회사의
들자면
팔공산
먼지
재료를
##일랜드
경영기획실장
개헌
관에서
구별로
보고도
팔고
International
교통의
야생동
불용이
앞선
주민들한테
QR
대표와
실현하는
생각하면서
기능의
오피스텔
조문의
##교육지원
채택한
농축산물
제지
수입신고
두산
유충
##트럭
관광명
찾아보
기관과의
정부도
전자문서
인권침해
제조제항에도
의심이
현상은
원고를
결실을
브로
역사적인
불상은
모호
예전에는
준정부
보고된
세심한
사각지대에
##락에
작성은
##비료
만을
공간의
명소
청탁금지
중추원
관통
선이
일부터는
어린애
선거인명
저작물을
부적정
##면적의
##일정
##상한
직업능력개발
힘쓰겠다
의주
행해
홍보대사
편성했습니다
주차장이
##바꿈
기준치
##per
문제들을
중심을
모시는
불투
추산
##분부터
연구회
남동구
발생하거나
연결된
형사처벌
등용
##였기
##해야지
추진하면서
고지를
행정력을
회사와
여기저기
한국가스
정리한
현금으로
설명은
수립이
벗고
경로를
분들한테
추심
협정을
##기간행
##ram
##검사에
##양이
발표했음
사사
인자
##위원장은
소상히
망명
파산에
문화체험
용암
##카페
남쪽으로
##진에
선수가
처치
MW
농업기술원은
사이로
선적
온도가
생각하였다
##노동자
##승이
멀티미디어
전자금융
자신과
심의가
게도
선도적으로
피고들의
명까지
행정과
##대여
산재보험
기차
어제도
상처를
사업성
예비비로
이노
cm의
국가정보
대통령선거
외교통상
영예를
청량
방지시설
상속인
마애
품목은
의아
현장조사
왔다는
담배를
##실천
세련
월까지는
##긴급
여러분께서도
##공단이
사생활
##건설위원회
병영
얼음
해주십시오
감축을
마실
선도할
남서
옮기는
인사에
##모델을
임차인이
골라
사이를
예측할
##기에도
수출지원
회씩
##플랜트
양도소득세
##절차에서
자꾸만
부가가치세법
떠나는
##구멍
참여해서
조합원이
쌓여
강풍
통신판매
##특정
보령
도로교통법
곤지암
추천해
##목적의
재물을
##건의
제조의제호
##제재
##장기
##셨고
부족하다는
브랜드를
야생조류
공급과
귀한
사막
소용
석불
필요성과
개선해야
메가
의제로
##바위
신고하지
연도별로
시기적으로
항복
##기나
전남에서
가두
시책의
##이었으며
상표등록
목적인
계획한
저리
##같은
일관성
스파
게는
뭐다
궁극적으로
##연구회
됩니다는
기업가
물고기
야영
혹시라도
덕수
무주택
민물
예규
수온
실시된다
힘들고
입장료
보도된
물로
색채
이색
채택된
최첨단
대가로
때문으로
당황
저게
교통량
에이즈
오포
포함돼
확장을
ESS
##지원센터를
##태세를
어떠세요
유도해
어르신들의
타당성조사
밑거
출항
국가기술자격
관리주
오염된
사기진작
공사와
최근의
문화관광부
정기간행
파직
남기
다목
경기지방
꾸려
통해서는
부모를
여수시
도입에
기업들은
배경을
##임무
들어있
항소심
맞벌이
양적
관광을
징역이나
병상은
올라오는
실험을
상하이
오류가
초미세
나가면서
취약지역
개도국
##명세
안전이
수생태계
전차
##증가
시간선택
발굴하는
점차적으로
종전에
형태에
물품에
문법
##가락을
대민
##서원
##하셨고
사후관리를
양념
대다수
와의
기구가
흑자
원이라고
##사고의
##상에는
일이었다
인간은
도로명주소
천호
회계감사
동쪽에
발견되었다
못하기
유물은
사용될
참신한
해당된다
광범위하게
마쳤다
지방경찰
문이
스트레스를
차의
설치의
감동을
위원님을
##뿐더러
국가무형문화재
도예
생각하기
마련으로
취득을
등장하는
골목상
속도로
송신
만든다는
사를
유지에
요거
연관이
도모하고자
반송
구조와
팔당수질개선본부장
든다
오이
투자의
융기
급경
청라
전면적으로
출제
위촉된
카지노
열을
해빙
헌바
빚을
설계에
개방을
출석하여
##ement
갈색
의해서는
##카드를
나서는
허리를
제조에서는
필기시험
배향
##근거
유니버
준수해
##사대
##운동이
대우를
정관의
##RC
세금이
팔작지붕
##조합이
횡단보도
치를
재위탁
기술인력
향상시키기
사용하도록
연구비
##반도체
이유도
서류에
면도
인천국제공항
총괄적으로
이사회에서
못한다는
##실무
꽃잎
실시을
유지해
##제기
적당히
##행사는
청도
시정의
수소차
단속에
휴게소
##던가
##주시고요
역할도
##이거든요
부분에는
부상을
##용기
##노래
##감정
추진키로
##조정에
정도입니다
##됐으면
집중할
비급여
상황에서도
인천경제
지하에
병원체
욕구
##관도
기술자
관계도
병원의
표방
출신으로
격려했다
##부서에
거래에
이동하는
예요
사용의
존재하고
자치행정과장
인감
북서
종은
김정
교육하는
말씀드렸습니다만
도중
액체
##인들에게
긴밀하게
화요일
보고할
싸게
이번이
##신보
원자로
##법정
얼마인지
형사소송
관련되어서
저희들의
말라리아
위험성
체납자
알았다
됩니다고
옹호
심리미
바꿔서
토지소유
전체로
강사로
것가
끼칠
단풍
문종
##빌딩
도시락
이익에
호평을
배합
의결로
혁신과
들으면
신인
해결될
##쓰기
정비하는
##수송
톤의
도입할
이때까지
보면요
##단체를
강화함
정보기술
##재단이
##급식을
보이스피싱
팀장님
어려워서
##내지
동참을
오래전부터
##줘서
보고드리
기권
과에서
대궐
높았다
##사업자와
조정위원회
질의하고
##전망
##도도
사헌부
바둑
부로
##확산
운영비로
사례와
서무
##질러
문화산업
##외다
등기에
##봉이
맞게끔
안전대책
어머니를
##입법
입찰에
제도화
후배
##경비안전
##과천
규정함을
장대
##ge
준공검사
서너
영아
말씀드리고요
산화
대응과
산청
발생되지
호칭
다져
다룰
밸리
계속되고
시도를
안채
연한
도절제
##개정법률
중단된
후퇴
서쪽에
##단지의
##차량을
##곡동
##태를
하였다는
아파트는
##습지
부하
발전하는
증권거래법
해녀
미이행
오면서
자치단체의
성능을
편리하고
보건환경연구원은
##법원이
드리느냐
기틀을
해온
사례관리
묻혀
검사하게
침출
산모
##파에
##밖에는
밑과
고시한다
바다의
방위산업
##상담을
첨단의료
보건복지가족부장관
시의회에서
법안을
확산될
국방부장관
로그
근로자는
가구는
사과를
호에서
목록을
적자를
조국
세워져
작곡가
##보상금
##수요에
마이너스
##했는데요
제조제항과
불법행위를
별관
제향
항변
근래에
제공으로
어때요
관행을
대손
##전한
투자해서
열정을
작품에
작업장
이뤄진다
여기다
도발
시작했습니다
일인데
창덕궁
뒤와
발로
평가해
인용하고
비를
함흥
급제하여
상여
필요하며
참여기업
신설을
되었습니까
실시로
부양의무
고집
있던데
##가격이
업적을
##노니
지역공동체
상생협력
시정개발
##상태가
직불금
저공해
하의
분명하지
상품에
치사
도화
관광디자인
유형을
살린
##심판을
오미크론
김종
외면
사회로
영리를
##지배
주의와
##준칙
교회의
행위로서
알을
##물가
도소매
부식
##요금을
불타
신소재
감소에
강조하였음
시절에
연장이
전선
##공무원은
제거하는
되더라도
서사
##혈관질환
출석한
보급하고
격상
경원
심기
건립된
종속
##양주
##회의의
있기로는
##하였다면
민주적
손바닥
절감할
제방
제권
##당사자
이해관계자
##입니다마는
언론에서
줍니까
지연이
실린
##하게도
일하기
의료기관에서
국민체육
##나와
##자동
엑스코
##르타
상담소
무리한
서고
체계도
불신
구성됐다
준수하여야
기대에
야간에
키울
##연구를
조성으로
제조의제항을
병력
치하
자체수입
명만
생산품
연산
기자회
온누리
우리사주
약정한
년이다
치명률
불분명
##업계의
헌법상
대상과
관계의
그러면은
##하시는데
훈련은
선보인다
틀리
운영위원회에서
gg
활동도
신혼부부
매듭
금강산
출연금을
굳게
모집에
아사
국장님의
화원
매력을
제항이
과소
##됨으로
##등본
쳐다보
통칙
괜히
서장
문화본부장
중앙과
스포
걸렸
##링을
그이
하매
실질적으로는
##전시회
교사의
접수가
육성할
살아남
교육부와
요양원
토착
관광산업
사위
##시도
안전시설
의무에
국선
것인가요
##행의
##초의
행정복지
매매계약을
그놈
경제국장
미래전략
이전부터
##확대
원이면
만장일
없었어요
놓았
주채무
여객선
울타리
협회에
##으라고
노지
초가
##세무서
절단
##환이
마구
##경매
정책개발
선박이
저작물의
##교육과정
체계의
재판이
확인은
농업생산
계엄
우뚝
방역에
소리에
시공사
위반되는
원서
묵묵히
초청으로
보다가
토석
##우지
사회복무
상당을
청하
때문은
##음료
사업추진
주며
아테네
땅에서
올라가고
군무원
내놓고
고의로
바이오헬스
##아도
대단한
정도이다
기초한
고등학교는
기회도
버릴
광대
연고
##라가
분수
##사원
위치해
서울대공원
여성가족정책관
보수가
직급별
코로나를
유생
개선된
특허출원
원고들이
악의
종량
전향
##닉스
현장대응
조정하여
수입하는
명시한
고려하여야
과학적인
##되더라도
충족하는
지속되는
조직하여
풀려
노후된
오시는
방문하고
판매업
해제할
귀신
시민은
들으셨
타입
납부하는
생기게
관람객이
##억제
윤허
소송의
문제라든가
어민
같지만
아직까지도
농수산물도매시장
확인하여야
협약서
대구소방안전
제주를
겨울에
##소집
제조중
라면서
실장님께서
명륜
폐단이
전가
만들려고
올라간
도시계획국
요동
##종과
예술적
위탁관리
있으시
발굴에
일제히
걷는
지속해서
여성들의
##마스
##과학원은
중국인
마이스터
철기
##청사에서
방문판매
의상
들어가도록
증가했음
개월을
피가
시행자
일상적인
개최되었다
설계비
구성돼
최소화하는
가르치
압력
풍경
불명확
크다는
포인
안내받을
다르지
밝히는
주려고
##시하고
##종자
##상품을
설치고
품목의
땅은
라이프
여성과
오해하여
밤이
작년보다
##노선
변경의
고졸
운영비는
보급할
음악회
검체
##산리
마리가
##소프트
용도가
실내공기질
반복되는
개월로
##동아리
앞당겨
설명드린
주택도시
안전성이
줄었습니다
지원방안을
##자료가
그것이다
고생이
##재와
해야죠
하셨기
업무로
적어서
##pt
사람만
계시지만
##수기
영화제
스페이스
취소하고
칠레
##체결
##내용에
국기
문화국장
달구
정부합동
시군별로
폭설
하시기
오일
채권자는
국장님도
단체협약
쥐고
변화로
도읍
사신을
이슈가
##라의
##외선
지를
##정에서
##거리에
문화체육관광부장관은
기점으로
넣으면
자백
도서관에
들리
반경
소망
접수는
##공동모금
모았다
하우
협약이
특수관계
빨리빨리
##공원으로
결원이
비용도
의결권을
##총회에서
서로가
높아진
청소년과
운영위원회의
##지부
피하기
##하다면
수준은
등록번호
보고드리고
의료기관에
인생의
##주셔서
부산항
협력업체
지금을
실시설계를
만의
예술을
보조사업
오사카
Ar
의성
##one
드렸던
##분해
과장님께서
중요한데
애써
미래산업
분포되어
동등
정부부처
##인지에
재난의
않았으나
차려
기업결합
인천시의
만천
이인
정이
##익이
명칭으로
행행
하는가
전달을
##달이
##ET
상위법령
뒤에도
##하였는지
지식이
힘썼다
명세
유혹
컨설턴
월에서
선의의
##추는
신성
비송사건절차
채권이
##육상선수권
매수인이
재무제표
사유와
생각하여
##했었습니다
다양과
사업비에
북한은
국내여비
자조
##스타트
광진
표현의
##겠나
##현장을
가족여성정책국장
##파리
말씀이죠
만일에
보수에
##우회
러시아의
##분뇨
만들겠다
대장균
재미있게
##창구
##옵고
혹시나
생각하시면
선급
##처의
준용규정
나누어져
유비터스
말씀처럼
일이고
사례에
수익성
동력을
##act
##피를
여쭤보
돌고
##확인서
신남방
식수
베어
맡길
국정감사
생산량이
##진흥원은
##보건기구
차별을
방통위
추석을
갖추게
별도에
신용평가
인근의
모친
행정관
토론하실
부채를
방문으로
##안과
##외로
조직문화
위촉한다
행사하지
소유자에게
엄정한
##잔디
전국을
화명
##점포
보관하는
##정비사업
제안설명드리겠습니다
##속도
##증으로
##청정
공동이용
발급을
함으로
##인력개발
구석기
##요원의
##대금의
예측이
선불
어려운데
KF
손해배상책임
임금은
상조
미래차
허용되지
##지방산림
책임질
그곳에서
앞면
과목을
다음을
수준인
한국도로
##조합에
조카
지구가
붙은
해소될
용납
유추
한시적
밝혀진
법리
의지와
지금까지의
함량
손해배상의
NCS
소비촉진
등록신청
법관
왕조
제조의에서
금성
쓸데
보여요
전적
준공영제
대표를
설립되었다
##말이
집행은
서로의
후부터
관계자를
##했었는데
지방을
청소년들에게
경우부터
EBS
공교육
하나입니다
##말소
항쟁
##배치
체질
데모
부작용이
교수를
IB
지방하천
살리는
정읍
채집
개발사업에
입게
##씩을
##계획서를
응급실
미술관장
층을
##그네
관음보살
퍼포먼스
준수하고
엇지
신기술을
수군
사소한
##화장실
손소독
정치적인
비핵
장점을
거치고
소방서에
꿈나무
혁신형
수령을
An
영상물
해주신
집단에너지
현재와
배출권
남았습니다
인턴십
식물을
페루
조사해서
준비할
구사
향상시키고
##지주회사의
순직
믿어
##부분이
해주셔야
보시가
##어머니
모스크바
증상을
들어왔다
수위
공격을
국가적인
교통정보
기계를
달리는
면으로
양보
사해행위
##채권에
코디
협력관계를
고용안정
하이브리드
##노무
##일자
도로와
마을에서
일본을
관리로
##부분은
이르지
규제개혁
수집한
택지개발
재기
보시에
예술교육
계산할
창업에
국제항
깔고
파견을
이뤄지고
평준
##미사
심의할
##극을
성금
관인
증액한
세상의
혁신교육
##으면서도
##러미
돌아올
품질시험
영락
정부출연
국가로
약수
판단된다
생겼다
애정
조성되어
효과성
영원한
극심한
구한
중심지로
대처하기
원이에요
제조제항제호에서
##외에
평균적으로
워싱턴
둘러보
자라고
계산이
과감한
수도권에
##단체와
예술단
기운이
대책도
하수종말
##우리
실시하였으며
상담이
항노화
조망
진행하며
교류의
감사관실
잔치
사용량
제출이
국민에
##가목
예상됨에
해동
섬의
전사자
##진흥원의
보온
데에는
##스턴
대체할
추증
##례의
우월
##예산으로
강수량
항원
정리하고
성질이
제주도의
사관
이마트
##알선
보고받
사회복지과장
동아일보
절실한
설치하였다
가덕
##벌채
보육료
진술할
구성되는
아트센터
였다
취약계층에
구직자
공휴일
대행하는
화재안전
동부산
산후조리
특별점검
취업에
비정상
직능
탈북
신고의무
수정안대로
##드의
##길로
집중되어
일으킬
교단
##활동은
랜드마크
붙일
계속비
교체하는
##인으로부터
드린다
##대학을
##서비스의
관절
미신고
활동한
구간의
최장
재능을
일반회계에서
완충
기관별로
이어진다
구멍이
##들었다
맞배
소비를
치유농업
결원
##연혁
들의
##직제
거기까지
##협회의
지원대상
들어서면
삼층석탑
사의
##확정
오징
농림수산식품부장관은
새누리
실현에
심의하는
공공도서관
건당
국조
##oun
기존에는
당할
명성을
##락의
주식회사가
##분야에서
##단위로
대량으로
공감하는
하셨지만
한이
##인턴
위협하는
대구국제
생활용품
검사와
개막식
취학
폐지를
##표창
이르면
손해에
지역민
외교통상부
대차대조
발전해
해본
농업기계
객실
상륙
화이트
국가유공
자문단
월남
구성으로
교류와
은행법
신체에
체코
사태를
토양오염
여쭤보고
도난
연립
세무조사
도비가
중앙정부와
산은
효율성이
일시적인
공공요금
세종특별
##례에
특별교부세
조선일보
##ong
기기를
의문을
##았으나
놀라운
경리
##바이트
무을
가장한
##처에서
##문화재연구소
##받으려는
미상
시작하고
유치할
##징수의
증가하였고
명세서
설치하거나
전원이
정체성을
산업별
자원봉사센터
충전소
이삭
지도점검
신민
풍성
##코스
있으세요
울진
설을
실정이
효과에
##olog
경찰청장
수학여행
##명부
전망을
부족하여
이야기한
바람입니다
##구급
재정관
산업은
정치가
혈압
실직
계획인데
숭배
##자전거
##온다
##사회에서
지원센터를
##률에
내용인데
사회복
금융지주회사
도덕적
중과
이음
순수하게
동으로
벌채
##지어다
수술을
##유역
유기징
권력을
사급
행정업무
부담할
혐의로
부이사
최우선으로
믿지
##에을
현재로
공통적으로
##각은
집행의
##도로를
##부지사는
사다리
홈택스
##공학과
나타났으며
증가하였으며
생계를
##기관으로서
보완하는
추이를
부지로
분임
자루
##기록을
포상을
부모와
공화국
수사의
실연
##견의
##공단은
관찰사
나가게
정원조례
기로
예술가
공연과
시공을
합작
부처별
구체적이고
공영개발사업
볼거리를
하리라
##보험의
품종보호
잡기
아름답게
관청
지점을
한도로
##총액
추억을
정세
타협
재판상
무리를
날짜를
순조롭게
한수
편차가
##계약서
자동차에
방해한
장애인들이
않거든요
주주총회
다량
내려와서
##이상
들어선
##토가
예산서를
등지에
맺어
##실히
서울의료
서울문화재단
교복
개월에
오른손을
환경성
내용대로
사용해서
공공조달
위탁하여
교통비
##ork
발급하여야
##교류를
당부드린다
##새가
과학관
아래쪽
##실장이
자영업
충렬왕
번쯤
계면
봉사를
##편성
유신
전기안전
경제성장
증액되었습니다
NGO
판매가
일찍부터
선택과
성립한다
승낙을
##집적
차후
##날이
##벽에
어린이집을
##골프
내실화를
돼지고기
올해에도
낙농
##브리오
인프라가
번이
나중에는
저와
트리
단가를
양은
있긴
집행하였습니다
찾아야
감면을
자신들의
후단에
##극의
회복과
위쪽
##유출
성과로
내밀
활동비
##처분이
개략
자연휴양림
어기
소나
환경산업
범죄사
오를
패스
포르투
명이라고
##자원이
촉구하는
고승
백화
했는데도
종사한
환경부와
투자하고
하루빨리
성이
관광단지
구청장을
수익금
표지를
##혜의
보내서
시도지사
질병을
남한산
##도감
소속의
사업주가
냉각
제법
취하지
##언의
##운동은
공고히
해서라도
언론사
##족이
불법으로
##주식회사
것뿐
트위
사장님께서
하였던
다발
체험관
말합니다
##증상이
등급이
머리는
##영수증
##겨울
공원으로
제창
화분
공장의
오다가
지정받은
기관인
장애학생
조계
동안에는
벌칙에
##률도
현장과
여러분들께
##말에
않았으며
불참
세는
##시키면
운영하게
기관들이
강구를
씻고
원양
집약
모란
그네
편의성
골짜
##EAN
##시설인
군청
쾌적하고
준용하여
행정사무감사는
사항이고
서류는
그분들을
도입이
가축방역
시흥시
주변을
넘어갔
등에도
결심
종자를
플로
사무실을
눈과
흐르고
생중계
##타령
##공장을
##했거나
##왔으며
국가정보원
민원에
무수
보석
##평가는
약속했다
가도록
##특허
동사
학술대회
제항까지에서
수도권정비
조만간
현장에서는
대통령령에
복선
봉수
##트에
하시죠
이렇게만
알맞은
필터
고려하지
##eal
시행착오
광주시장
엄중한
베스트
서운
용어가
주주의
##분야는
##처리가
무한한
NH
산정을
젖소
제기되고
성경
뚜렷하게
거룩한
Tech
민족적
대서
도내에서
벌였다
##죄가
상담회
##자녀
양쪽에
염불
정제
가지는데
의견서를
기하
제물
신뢰도
##교구
찍은
부동산등기
건조한
주제에
금액과
만들지
설립하는
통계에
전부가
공모전은
표현되어
##lic
종류별
여객자동차
##판은
기술적으로
증가하였다
재해복구
등에는
시행의
##면적은
우러
변화의
결혼식
##목표를
선정되면
조사됐다
즐거움을
##자활
면적에
##차량의
바탕에
취사
존립
##운을
나왔고
##그레
연례
외주
##io
경과되지
연명
##분한
개발행위
프로그램이다
백성의
서울디자인
빠짐없이
겪은
발휘할
##모니터
왕실의
페르시아
전대
침해를
##지구를
마련하고자
단계의
해경
##진과
분들에
오케이
##age
자립지원
종합계획
식료
중앙회의
의원님들께서
다자녀
심사의
##주실
계시는지
##정부의
나주시
##업으로
솔직하게
보답
발견하고
나한
판단해
선양
##ry
집중을
익일
##시키는데
건의사항을
대안으로
본의원은
조정한
제편
파일을
대법원은
남도의
수염
소방재난본부
##으라
협력하는
저감을
##최고
질병에
약정에
도시정비
교통수단
문제점과
추진하여야
국가경찰
관람할
실을
제안서
최소한도
선교사
의의를
온몸
##농업을
공제한
앞장서고
기초학력
문란
##책은
발생의
동사무소
공개모집
행정사무조사
##int
리얼
전성
공설
되신
명명
수명
옮긴
보조금의
당하여
부회
알루미
경기테크노파크
부지런
문집
아동이
주유소
##간호
되는가
보험에
이동식
대기오염물질
배나
안과
협업하여
위패를
과반수
도시재생본부장
사업이고
나비
##필을
기둥을
통용
운수사업
뜻이다
욕구를
그렇게만
통계의
홍보해
특별회계의
하자고
뿐입니다
##이어서
인적자원개발
신고하는
사람에게는
당신을
계상했습니다
이뤄진
표결하겠습니다
일시적
배우자의
##지도자
묶여
축하공연
공동체를
정당이
입목벌채
TE
싱크
폐렴
전파를
편입니다
##있는데
기장군
이용과
수산업법
##현악
진위
##합성
태어났
노동력
기념품
옮겼
금년부터
진흥원이
실천하고
먹는다
표현하고
도시철
출연을
장거리
합당한
시행과
들어왔습니다
##BA
마련한다
우연히
열매는
팬데믹
##용은
##론과
봉사단
문경
일만
명목
예이다
의과대학
리플릿
청담
기술협력
##신저
아버지를
불요불
##답게
##발전과
농어민
국장급
사상의
한센
기대하며
실시하겠습니다
시정조치
나목
송시
접근하는
간절히
선거사무
정보주
채무가
시비로
도주
일로부터
창업자
정서적
사회와
공동체의
##동계
##mp
본의원이
차단방역
위안부
con
억이고
재단을
강좌를
##뉴딜
포르투갈
교리
##방사
##밀도
운영하도록
감액을
석을
최초에
처리는
임명을
팀으로
##하수
##통장
배척한
미등록
연결해
외교부는
의료원장
공유수면의
부령
이요
예절
##약관
제호에서
발탁
펼친다
언론인
못한다고
미약
자유의
년이면
싶은데요
기판
##증과
##차고
단층
칠곡
신입생
분류를
알면서
그렇고요
사고는
##비상
개최했음
훈련에
초기부터
종교시설
##르면서
##시하는
어우러진
##면접
##쯤에
인수한
당국
Comm
용의
단서를
##포함
##난이
명칭과
까지는
##설계를
아을
회의에는
책임과
아내는
출입구
나요
점검에
토론회는
근거해서
정부로부터
세세
##하든
위임받은
코딩
아닙니다만
선천
개월의
액수를
분포하고
##적과
빛깔
창업보육
달리하는
##었더니
경제는
생산할
처리한다
첨단산업
주정차
승무원
정보처리
강화가
심사숙
지구로
대두되고
피감사기관
실상
고운
아름답고
밝고
##작목
##빛이
##HD
대책으로
일류
##김치
사실대로
세계보건기구
황색
UCC
당위
공원관리
은폐
지원비
이것과
접하고
취해야
항아리
공문이
맞서
오십
연구원에서
##묘한
제절
##환경이
프로세스
인디
학원의
기본재산
줄인
##중심의
발전은
살던
실사
부위원장은
모임을
영유아보육
재앙
##따로
필름
가능이
SD
예속
장로
소관은
##공단의
띄워
아내를
이론을
마무리할
도검
##구획
지역입니다
예기
우정사업
체결에
양일간
##러블
지금이라도
##하시기를
급식비
##고객
국무총리는
무분별한
말씀인지
심사청구
이분들은
직속기관
인스타그램
##었잖아요
얘기인데
전환에
지방선거
현장체험
##end
의장님과
애로가
##아래
성립된
교도소
복지사각지
상자
건설관리
자전거를
산의
인정되어
인도적
바탕을
##병무
속을
진입을
수긍할
슬라
등약
지속될
심사위원회
위엄
국제금융
없었다고
맞아서
직선
가능한지
경제와
일터
##련을
이동이
움직일
살피고
호구
에셔
이에다
제정에
점검한
외부감사
얻어서
후로
종류를
나섰
단지는
##운영에
파견하여
주문했다
나들이
시스템과
측에서는
##건수는
##쉼터
##론으로
##회의에
불특정
지방교부세
분과위원회
##수화
감소된
##하였음에도
주선
##국세
인정된다
연말연
##치면
입장입니다
광배
무알
등를
아르바이트
유람
저상
활용방안
##ace
절에서
해할
전화로
번갈
발제
우리들
순세계잉여금
당대
제공받은
않지
격차가
저절로
형성하는
구제를
설령
콜비아
##습기
##IA
유형별로
순천시
확립하고
발전하고
설득을
실업자
발급받은
강구하고
##카메라
##판정
근로조건
고등교육
봐집니다
청동기시대
요구해
동의하십니까
이루지
도입해
##장님을
생필
전라남도에
당사자로
세월이
관리과장
사업비의
군비
국가안전
이용되고
미생
박물관은
강습
현지에
아니오
##일반
장래에
명시가
셈이다
통로
한진
등록은
스스로가
산불방지
공공기관은
지역사회보장
자립을
서울혁신기획관
행정처분의
면은
바도
##르몬
연루
혼란이
통계가
##일까요
오르고
풍성한
##정지를
##토의
신세계
##사업단
##사무소장
배치가
악한
정책과장
승인된
제주년
알려지지
여수세계박람회
협의회가
전자파
기금에서
동물복지
링크
건강진단
타임
##실업
관련에
기획경제
산업자원부
설치해야
조치사항
점유하고
양국은
의석
대비하고
제기하고
심는
역을
원에게
판각
##se
##접촉
낳고
##통에
이전할
생겼을
집무
귀에
내부적인
들어오지
요청해
##돌의
연락이
경기관광
설치하도록
전방위
맹세
유전체
플랜트
시레이션
선명
생활하는
상품이
기념사업
수강생
##사육
너희에게
IA
이전이
협회가
발생해
준비되어
구역으로
요구하실
개척을
명장
탈루
##시설관리
선출된
##도사
대표적으로
복지국
##소득을
벌이고
학교법인
도입으로
일임
##팀의
있겠지요
말씀하시면
관리도
대해에
대통령령을
이러이러한
동인
초음
소멸시효가
치료가
직전에
생각하시는지
참여하였다
소주
베드
서쪽으로
수유
한정되어
선임된
벽을
##진으로
##환승
경이
달라요
공권
판매촉진
##주시는
공모사업에
참고하시기
민감한
든든한
##합병
주민등록인구
##페스티벌
준수해야
퇴직급여
가려고
예식
국가보안
본부의
##IN
피해자에
않으니
안건의
고등학교를
마련과
##ax
원으로써
##RD
판단되어
분석에
한탄강
느끼지
감정이
고래
억이나
탈바꿈
지식경제부령
관급
품을
##관이나
진행함
경국
은몽
##평호
기간과
차세대융합
깔아
숙소
##패가
더불은
단군
##폴리
교육감의
수렴해
유방
체험활동
명임
##뇌염
외교부장관
논의하였다
있으신가요
체외
모음
자사
것으로써
##했지
마당에
배상을
경지
전산화
반해
시방
들여다보
개편에
##방지법
몰수보전
코트라
##박사
##의무의
마시는
부탁의
안주
국가대표
보존하고
북부여성
결의에
불쾌
성적이
음양
반영하지
하반
##회관에서
관계없
요지는
수입한
실무적으로
유물을
유치하기
보험회사
양성하기
파생상품
정시
사은
보셨어요
##통의
사람입니다
##우면
찍고
##왔고
금융기관이
매를
발생과
교통약자
협조하여야
음용
이산화탄소
##난다
위원님은
달러의
선정한다
재산분할
대도시권
억압
##장려금
아니하다고
##ial
있는지는
리그
보러
재평가
해석이
비거주
가닥
봉황
Ex
물질의
완화하고
집착
관련자
##해에
가능성에
부평구
분사
##미로
땅의
##롭지
혁파
형태이다
고양이
꼬리
구성원의
중요성에
성장하고
기사는
##국유림
수석대표
원천기술
관련과
하냐
##작은
정부투자
조선업
도축장
선착순으로
본부가
들어오게
분화
해당하는지
나갑니다
집행될
고덕
구태
곳에는
##사료
이상에서
업무분
부전
재의
경량
님의
##린다는
##구조의
##신청이
찬양
판결문
동전
있었다면
소원
변질
집단의
책봉
생략한다
연임할
관광진흥법
홍보는
관련해서도
담당한
위원장님이
방문해서
소속기관에
원인에
우두
선도적
원내
서류가
되리라고
산업통상자원부장관은
입맛
피드백
굳건
##evel
내정
##진흥원이
어렵지만
부과하고
국토해양부령
쓰다
책에
공룡
행정절차를
행위와
원칙과
국회법
표의
##투자가
반영되도록
단단히
연말정산
의정부에서
적용으로
나무로
물체
농림수산식품부령으로
명분
기술보급
결재를
당부의
포기한
주관하고
##지구는
하얀
벌칙의
본원
준칙
사대
유구
상속인이
확대한다
##벌을
##여지
시행하여
설립하고
해양오염
고시를
계산해
해칠
##경연
신고의
사랑이
강조한
반을
사라져
##지원법
##확인을
역삼
군도
##열에
##공단에서
학부모들이
본부를
사업화를
의사와
초래하는
실수요
피고들이
말이냐
점검이
벌어진
검사한
강하고
발돋
설치하지
학술연구
물러나
요충
모양인데
면할
속에는
지원된다
언급을
상실한
CA
저하고
탄소중립을
간식
계하기를
분별
구속영
##내서
배출허용
관광의
등록하여야
막걸리
##공단에
##검사는
뜻한다
부부가
사제
사업장이
틀어
않았느냐
##손실
활성화에도
매칭을
걸로서
World
##했잖아요
쪽방
##행사의
제안하는
부서로
방해하는
결정했다
요구사항
모색을
성공사례
지속해
##기획단
##전시관
교육정보
극복할
혐의가
딸이
구치
산자
담보권
##공사비
사실로
자율성을
제목으로
약사법
아니하였
그지요
경기도지사는
##시켰습니다
유통되는
김성
부산발전
##원들이
냉난방
당근
실전
계통의
이루며
전쟁의
##대책이
미추홀구
업무보고의
책정되어
앞바다
퇴장
점유를
부풀
기술직
지원하겠습니다
채무조정
차고지
명하여야
추대
특별조치법
첫째로
##리포
홍보활동
유예기간
가신
마련하였음
방지하는
가동하고
##집합
예산편성에
동남권
가하고
교통부령으로
증손으로
남이
보호되는
##지리
어린이대
비영리민간
전출금
이제부터는
담당한다
심판의
공공기관에서
지배하는
투표해
안전교육을
대상지
도적
##자율
구조의
검토보고가
가평군
걸러
기여하고자
사회경제
부사장
서울관광
문화행사
##생활과
##이전
정하되
이라면서
유적은
위원한테
체험하고
콜라
##상승
사신이
세입결산
그걸로
언론을
개인정보처리
장애인복지법
단지의
어버
메커
승계한
##거래소
##채소
만들어져
##발전소
고등학교에
주요국
대외적으로
이라크
대행하게
##영은
컴퓨터를
하기에
징발
발매
부족합니다
장애인과
##관한특별
Cl
##론적
위반의
기한이
급식을
시간씩
##지역인
연근
성공할
감고
중간보고
재료비
##줄을
징수조례
##매각
##창작
국가정보화
수입금
벨기에
도시형
뚫고
질의나
기획재경
현원
##렸고
박람회는
말하
##미군
사업하고
폐지한다
폐단을
##색은
대인
##올시다
준비된
EX
국중
##SC
국제행사
둔화
수혈
##셔요
쿠폰
조성될
축제로
##되니까
공동상속
신고해야
많았던
##백신
하겠으며
##럽고
공소를
주었습니다
참고를
담당변호사
의거해서
평화협력
##ian
높다는
##이라기보다는
청구인들의
한성부
의료지원
생산은
백일
있구나
##이오
##나무가
불안정
금상
생동
일상생활에서
타격을
예정에
##암의
##행정에
고맙게
살아갈
##림은
삼국유사
경마
도비를
##ean
개포
채용하는
줬습니다
군수에게
그로부터
심판을
레지
답변하신
스물
##갈색
반으로
생니다
검단
않겠어요
아들로
자산관리
##정책실
서비스도
마십시오
베이비
##션이
새싹
##대피
불합격
국민건강보험법
신고는
상호저축
불일
포착
##왔는데
동반성장
구조에
높아지는
인정해
아쉬움이
초고층
분씩
##서에서
부여할
없이도
##라기보다는
발달한
공개하여야
##기본계획의
지방공무원법
급속히
등에서는
천마
근로자에
직접적
##중추
기획단
##수거
다육
경기콘텐츠진흥원
시간선택제
경기연구원
받는다고
정기회
경축
죽음
##친절
설치로
지구별
영화관
상수원보호구역
교육부에
관광과
중국은
묵시
##환자의
받들고
병원으로
연월일
##혈증
순위를
동의하지
나오셨습니까
수해복구
유발하는
주장했다
평탄
홍천
업무보고는
잡혔
중이라고
##됐는지
수로조사
박물관이
그대
##림으로
해당할
예정된
여성비전센터
산업통상자원부령으로
권이
상당하다
등록세
의심을
##주셔야
계획되어
제공이
##수정
가져오는
반찬
설명회는
포상금을
관하
공급하기
말만
시험의
민주주의를
모서리
밸브
따로따로
없으시므로
경제과장
##예방접종
아름다움을
##테크노밸리
Res
답사
이번은
차도
##리안
초등학교는
희망이
자기에게
제주도와
유라
대소
연구한
단으로
관련돼
시작된다
가겠습니다
무언
대한민국임시
우리말
다하는
고객에게
부연
와닿
운영하여야
그때까지
퇴치
##상생
##정부는
천인
협상에
엘리트
분석하는
군민
개최되며
병과로
대표자나
그림이
영광을
농지의
##드민
##두로
##공사로
##주의와
심사할
##조각
제거를
##단체는
대응체계를
선발하여
알면서도
가정복지과장
##베이션
##기본계획을
갈고
발생했습니다
탈취
예비심사
안마
탱크
게이트
##콘서트
향후에는
미관
일본뇌염
한산
##리로다
##팀장은
지능정보
부안
공무원교육
기하도록
맨날
관계자들을
##총회를
고려에
것인지를
##EF
사회복지법인
청사에서
##계곡
사변
그물
선에서
볼까요
##강연
시설과장
기본권을
다녀오
그도
가라앉
지원받은
대한민국은
로동
설립되는
##니가
사람들에
제한적
보인다도
노벨
펼치
대통령기록
의료용
은행의
내재
##기금에
##간담
온돌
대한적십자사
향기
##널티
##간으로
살릴
있다든지
자세가
먹거리를
보셔야
제조하는
협력하고
율곡
하단에
##사회가
##들께서는
##라비아
부산지역
자매결연을
어긋나는
어찌하여
##LS
오후에는
사립유치원
문의는
생산업
##주택의
##하셨죠
##마라
##유도
변화된
협정의
이사로
##특수
벽에
영상은
조사료
방지와
작업은
##주택을
북동
회원으로
##하더라고요
인지하고
지적사항이
부대시설
손꼽
드렸습니다마는
중한
설정하여
중이고
최후의
건설위원회
##실도
안전사고를
덕을
##박람회를
되살
부적절
결합하여
페널티
읽을
라운드
보호가
이제부터
금의
봉화
발견할
안전사고가
소유권보존
명밖에
포장을
웃는
사각지대를
지참
몸소
보기도
우기
##짐을
질권
학술적
떠났다
배정이
소속되어
지출하고
송파구
임을
조평호
형성에
제약이
도시환경국장
취재를
한국관광공사
대방
적립금
전문학
올해까지
주요업무보고를
월등
##캐피
실시하였고
중앙아시아
잠시만
##등에게
제출에
재이용
다가구
고충을
증강현실
개최됨
ASEAN
안돼
지분에
수입과
출석과
백신의
산업안전보건
##작이
이후는
창의성
갖기
병에
대유
희석
##재에
불법행위로
전망된다
##폴리스
이론과
조선에
영업자
발생함에
강화하기로
놀고
투자는
효종
반영되지
벗어나지
함길도
실학
##겨운
일반인이
측정하는
본부장이
포로
성년
재배치
말에는
보고받은
##병과
보의
피는
되겠습니다마는
옮기고
유기적
##호에
계속적인
변경되는
우려하는
휴대용
스토리텔
분단
심고
##니스트
유로
##봉투
기업들을
위반하거나
채택하고
튼튼한
저축은행
직책을
트로
인증제
손잡이
많으며
##선거관리위원회에
다이옥
제기는
##심사에
기계화
공시가격
##운항
##농촌
품으로
##돈을
제공받을
확산되고
절실히
가입할
UAM
위협을
##차익
관계중앙
재정적인
##선물
##분쟁조정
자유학기제
범람
적힌
도세
보관을
선정과
극동
투자유치를
특허를
약관의
짐을
추방
##후를
##ost
이용하거나
##건이
페이지의
만장일치로
연대를
의견들을
##주의가
영업소
무사히
자식을
복합적으로
밝힐
잡수입
##놀이를
여러분에
물자
저작재산
관사
오늘이
##TM
##조합은
검찰에
산정에
해주시고요
##oci
##ater
민선
민주주의의
회계에
토론과
##결과에
의향이
살게
세목
안에서의
장면을
##처리에
##옷을
합치면
동쪽으로
양봉
정사를
##봅시다
개선의
설명드리도록
생활문화
재무국
시야
시경
외는
급격하게
아파트의
늘려서
성악
##경비로
사업장에서
계시니까
송광
거소
일종
병행해서
평화통일
대표단
가석
##르르
배너
예민
공공성을
소요될
지난주
단위사업
공고하고
시정질문을
각지에서
토털
자치행정국
경제개발
주식회사는
헌법소원
원하지
##장인
총괄하고
회원가입
이사회는
백지
무렵에
##심도
있다고요
##티나
사랑채
돌발
피력
사실오
건설공사의
##low
##영역
##ual
서울중앙
세입을
전후로
병풍
잃지
구매한
##했느냐
제공하도록
진흥원의
소비자들이
임차인
소생
휴가를
운영경비
##로서도
되었다가
수박
##TC
책임에
종합금융
##기구에
고분군
##였지만
닥터
재배기술
미접종
보여줄
신뢰할
노트북
단결
완공을
영업비밀
GPS
법정대리인
정권을
##투기
고려하면
반환하여야
반영하였습니다
인사관리
지하차도
폐광
##죄로
받았다는
부인의
##비리
선고한
Sa
굉장한
##보건환경
시장으로
지식경제부령으로
가능합니까
수의계약으로
ml
소수의
소재지에서
해석에
가니까
경영관리
원만히
창조경제혁신센터
차원으로
기입
##저리
국회의원이
응급환자
무더위
청년고용
탄천
사전예약
애굽
##용도
기업유치
개선은
##단체에서
시군은
##대상자의
녹산
##프를
때문이라고
퇴임
##님들의
처리하도록
홍보대
LC
박영
사이즈
##기일에
##추를
말씀이에요
##하시겠습니까
채권자에게
어울려
둘째는
##복은
부조리
##종결
취업이
반품
촉진하는
점검한다
대중교통을
대주주
세까지
청의
##무장
여러분에게
기능도
중국을
##환자가
업무협
에티
연기를
개간
수출상담회
제국의
##었지
해당되지
학부모의
맞추는
트램
했었고
개정안의
소견
폐수처리
##공시지가
노는
심문
잇고
후는
피고인을
추진실적을
기업하기
내려가는
동거인
행정적으로
자립도가
##급으로
있었거든요
일행
서울역
개최로
인력에
구룡
일대를
연이어
회장을
##봐도
놓을
실지로
##부에는
##ph
실천해
국회가
##ord
돌방
디바이스
인수를
##국토관리
발이
자동차세
학습을
연료전지
전달해
취하여
인사발
높였다
수축
사용하였다
입수
##왔음
문화재수리
연령대
나라사랑
참전용사
배출하는
조례도
부근에
진지하게
확보해야
출입하는
총회를
일인
해달라고
함께해
선종
##운다
모험
되네요
자원이
인정이
선보일
참배
전폭
대표자가
인천을
아우르는
자란
에스파
법리와
시설들이
제정하여
위원들한테
고치고
##밥을
경력경쟁
##결핵
##특위
정산을
차임
##회계를
국제통상
감독하는
말에서
앞장서서
프로젝트에
##도로가
주목된다
화엄경
무대를
##직할시
제출되어
충격을
생산량은
경기도의회가
##법연
추진의
##판결이
뿐이지
제이
재택근무
압록강
드나
변천
최악의
이상이면
오니
집행하였고
현실이
신앙의
인권을
말씀이신
##IR
도시숲
모습이다
떨어져서
급속한
제선거구
소개했다
곱하기
변경허가를
체험하는
자격으로
불허
울고
품격
중도매
허가할
기리기
다투는
살리고
전개하였다
국민안전처장관
##쟁의
##저우
고려해야
비브리오
적습니다
개인과
이행이
운용하고
##초과
확인해야
##방식으로
마을은
자기네들이
##금지급
차년도
열흘
사회봉사
투입할
방파
장서
##며는
##저런
창출이
채무자는
대기환경보전법
연세대학교
시작에
완료될
용이하게
해조류
장애인은
없어지는
섬세
청소를
적색
##부과
##론하고
시작합니다
국장께서는
끝났습니다
지워
##영이
##성장을
가져와
관점
먹어야
문제나
부분이고요
##시키도록
키우기
말게
아티
##사정
##기름
의혹이
집중호우로
구성의
가중처벌
장마철
회계과장
말씀드리고자
무대에
일괄하여
대보
어떤가
함안
제공하지
안정성을
##처는
고민하는
견고
낸다
벗겨
##적이지
팔당상
성별영향
판로를
만들었는데
고농도
창원시
행하여진
대제
부응하는
명량
한국기자
결단
##경진
체육시설의
발행된
들어가셔도
지시했다
계약금
조정해
써도
AD
지자체별
정착될
##잖습니까
##외상
##봤어요
반영하여야
쉬고
잠이
되었든
생태하천
참된
웃음을
지상에
사이클
밤낮
영덕
계시지
##ric
준비하시
지점에서
간을
대간
선물을
##클러
대상자에
근대적
##드민턴
##기획단장
축제는
##세트
가깝게
비판을
도별
세를
시청에서
경감을
##항이
정부에서도
단위에서
한강수계
한국사
사회교육
지자체를
북쪽에
시행은
청년을
말인가
증인으로
##협회에
인간과
철도망
봉쇄
##증거
감소는
TF를
특별재난
나무의
점유율
선구
##수단의
곡을
예상되고
##하시지요
장년
사실상의
법원행정
교무
농지를
담그
이런데
광장에서
공람
부른
##열의
듣게
광역버스
발급한
갈음할
##렸는데
문책
행정직
병자호
인지를
집중적인
등한
시설이나
재적위원
많으셨
추진방안
##청구의
선서가
화면에
괄호
만나게
##업자에
화장실을
매해
훈훈
해양수산부가
시험장
상층
있으리라고
가축의
하수관거
해외연수
과기정통부는
순국선열
PF
도도
##업소의
체험형
##투자전문
평화적
넘은
창경
제조소
사용된다
방송통신위원회에
착오가
현감
기재를
브루
면제된
지방자치단체와
##건전성
##희의
##신청에
대처해
초고속
표현할
Th
넓어
구성요건
##erv
않으니까
자로부터
요즈음
마다
건의하고
변호사의
본청에
가공품
사용자는
##기준과
말씀드리지만
할아버지
단어를
모두은
자랑하는
근저당권설정
매니저
리츠
연가
파업
보건소장
##사회는
받아들이고
정토
담당하게
평온
전면에
수도권의
##ction
판단하게
부탁드리며
양도한
##버리는
농림축산검역
사업으로는
##회의가
해주면
바늘
양지
##네이터
마음과
견딜
면모를
몸으로
유찰
이온
주택은
발표에
문자메
##ight
을지연습
사무소를
증인의
##약이
북핵
관광개발
상정하겠습니다
##조례안
집단을
말했습니다
편한
공업용
놈이
살면서
시행한다고
공공누리
처분은
공원에
못했다는
기록과
##규제법
미숙
입지를
발생되고
관아
부채가
결손처분
달하고
사업자와
합리적이고
이용하지
지역주민과
출고
측면에
편입된
못했는데
붙이는
##셨을
##부분의
##시킨다는
손님이
생태관광
광명시
퍼센티
조난
알아보고
국의
형용
##천만
양성하고
벌어지고
귀양
모범적인
불황
동장
##저녁
기대합니다
서부산
호랑이
문화체육관광부장관
평가했다
알고리즘
겪어
않았음
남게
옥천
##둥이
자동적으로
밝게
어겼
##습관
아니나
국가기술표준
남았는데
입문
배출되는
악영향
교수학습
##ory
##시행규칙
신념
누구에게
준수를
미워
연관된
됩니다만
감가상각
생년
면접을
##었어
재정여건
도서관의
초까지
담당하였다
법무부장관이
걸리고
얘기했던
대목
##경비는
제기되어
의료보호
숭고한
집행된
인증기관
군기
년대에는
뇌물
제군
예비적
업종을
무거
##ly
교육하고
지방해양
진출에
후보지
두렵
번영을
오르는
##충돌
다양성을
주류를
무주
호송
징병
질병의
농어업인
견적
협의의
이이
열매를
우리나라와
##면허를
시판
임직원이
산지전용허가
##중은
자연경
어려웠던
판별
이유만으로
##가서
이상의는
관장한다
건국훈장
부담금의
청년들에게
진로교육
추진과제
##기술개발
지어야
척을
##표는
KAIST
끌었다
가지고서
해결책을
다뤄
초지
##요원을
그제
전남소방
광주시는
인원의
개최에
상임위원회에
시켰습니다
이것의
변경안
정확하고
나니까
##자원봉사
해석할
##했거든요
분석해서
확정할
##실적은
리터
중소기업은
내달
가액을
보시죠
의거는
복합문화
학비
불법행위에
한국농촌
##내용이
부자가
책이다
##불량
신고센터
제네
당상
이데
##대도
유형에
주기적
시문
의를
석유제품
##EX
참판
##구먼
전술
성묘
용두
##조치가
찾아오는
돌아가고
차이로
운수종사자
보고받고
창조적
수자원본부장
환경적
교두
싶었다
알파
요인에
##form
건설도시
방송의
예언
해킹
##포가
##초가
지연되고
활기찬
욕을
영향은
하셨다
##교사가
교통공사
소기의
부족할
여자를
##객을
가지고요
m가
낳은
직위의
넓히고
##총을
활용과
##시스템의
부적절한
이루어졌음
뜨고
##류로
모습과
거치면서
취득비
백색
의도가
경우나
농촌지역
시의회에
남과
불과하다
예산현액은
규제완화
여성회
인사청
특수임무
황제의
모두는
미치고
##제거
관광지를
어린이집에
이르러서는
너도
##EM
도시기본계획
개입니다
소재부품
층에서
계발
발해
출처를
이전과
서지
위증의
##분들의
금회
어린이보호구역
무리하게
투자와
정착에
규탄
진단하고
가르침을
놓지
분기에
저에
부가가치를
업소에
##했지요
상황이고
오해가
횟수를
지회
##답변
##사고에
역으로
기초연금
이공계
인력으로
집중하고
박람회를
외자유치
탐라
위치로
구매하는
어패
옹벽
담당을
공개하지
시의회의
대구와
이행자
에스파냐
##하기보다는
장애인에
거래소
배출시설
예산낭비
꾸미
제한되는
##녀의
진행으로
한국보건
참석한다
환경친화적
##례는
보완하여
##사상을
##수역
지원하였습니다
말씀하시는데
옳다
제차관은
도서관은
사안은
수종
##장벽
신고해
##물자
여러분들은
되었어요
건설은
개사가
##제청
주거지역
아시고
염화
반환금
상관없
중이거나
F대회
##암사
백자
##리조트
##개념
돌리
##계약은
올바르게
관광디자인본부장
고장이
초보
서울시하고
진공
배치된
도피
특혜를
테이프
바뀌면서
지원한다고
편의성을
소관의
전락
식전
##외국
##으리라고
국가과학기술
교육인적자원부
##하는데요
명령이나
고향을
당면한
버티
우왕
책임감
상속세
대출이
연구개발을
학술용역
간접투자
있었는데요
방식과
나라와
뿌리가
슬픈
슬퍼
기간에는
제명
##미콘
해양생태
관로
통감
단계에서는
소비자는
##만하게
시베리아
##팀에서
활성화할
싶다고
주변에는
돌이켜
채무자에
구애
단지로
필요하기
때문이었다
결합된
##우가
개별적인
##담배
보존되어
조문체계도버튼연혁
맛있게
협의하는
저서로는
주최로
즐기고
센터와
신랑
튜닝
행동이
않기로
##지니
도지사를
농업연구
##분야를
기획조정실장은
서울시립교향악단
##PO
깨어
도로변
주셨고
각목의
##염소
GB
##셔널
용역비가
아시지요
기술사업화
보존을
부처는
가야금
신빙
##모는
돌려보
생활보호
검토보고드리겠습니다
현시
발돋움
과속
특색을
지적사항에
개업
안될
존재한다
납세지
지역업체
화합을
##암이
끝나지
##택지
##액보다
가한
많으니까
맛과
발판을
업자가
##제약
돌아와서
은행이
부어
옆면
##율과
안내하는
거듭날
##범죄의
내원
경찰은
노선의
평평
예상됩니다
면제를
미달하는
균열
고려대학교
완결
이어가
파급효과가
번째가
수하
좁고
##청구권의
개회식
출자금
부산진
##여행을
출자를
##포로
##현을
##스럽다
실시하기
방침임
체계화
굴뚝
##음으로써
병무청
이런저런
중심에서
것인가를
도사
부표
활짝
답변하세요
하천에
격차를
기밀
안전지원
부담하도록
생물학적
##업체험
##으려는
심은
타이어
의견의
##범위를
만들어지는
출입하여
행정중심복합도시건설
실정을
되겠는데
식이
알기로
남편을
산입하지
생각과
거기에다가
수증
##리이다
안전은
##들아
잘못됐다고
##플라자
잡히
##사채
목표와
바뀌었습니다
백년
##가맹
연구센터
국가지정문화재
자료들을
온열
점용료
사상이
원거리
힘듭니다
로스
##심사위원회의
##조건에
결정적인
돌보
지방검찰청
교통영향평가
당사국의
기여해
예산절
보완하기
km의
주의사항
갖춰야
강경
##상태에
고난
노력하겠음
정하여진
중량
구덩
위원장으로서
승인해
표현된
다이어트
복종
두부
아들은
서울시내
생략할
가혹
지방은
One
자폐
얘기했지만
돌아가서
되더라고요
봅니까
증거들을
나무는
위하고
진급
캠페인은
융통
전국으로
계룡
매연
걷고
##종교
의장을
흐름이
사업계획서를
제작은
통합해서
공부하는
SBS
감시를
노인이
결식
발생될
제호서식에
기을
과정에서도
난간
일반인들이
불교를
등본을
되었으니
##하오니
##박하고
##합니다만
받아들이는
고을의
수족
자형
소방서에서
카카오톡
없겠지만
민원은
조는
특수성을
##님께서는
규제특례
편의시설을
##객의
현안업무
당기순
오는데
빠져나
이별
##IM
국민경제의
나기
업무용
완공이
쓸쓸
이따가
다르다는
펴고
##지질
아니한다고
상속재산
유입을
전원의
##기인
홍보비
편성에
속히
##내면
본위원의
##싸움
KB
##장님께
교통소통
개인적으로는
##경쟁력을
##향으로
매출액은
나아가는
수치는
##엔지니어링
신설에
경쟁입찰
이익과
가서는
슬러
팔당호
장관급
##담당관입니다
양로
본질적인
연상
한해
##물품을
가습기
왕과
개청
목판본
참고적으로
##졌으나
돈의
떠날
유치하고
채택하여
서게
새일
자동차가
##결혼
##하신다면
##기술과
성질상
선으로
일반주거
동의의
재즈
##계정
버스정류
토사
대표할
방문이
의회에서도
##했음에도
올린다
드려서
근무할
보급이
날짜가
장내
공직기
신증
대교
비스
제석
##지니까
##rou
##비엔날레
사이가
타당하다
명시하고
화합의
이용객이
##질서에
수도권정비계획
##관리관
신청의
있으면서도
마인드를
신청인의
기념하여
임기를
흡입
감독의
##TP
구분한다
왕에게
중을
노상
##소송의
행렬
강원도의
고령사회
역임했다
애들
##네거리
보여야
햇살
중문
##우의
부원장
활용도
자원화
예외로
aT
마누
육묘
타서
##거리고
국가인권
하게끔
한국농어촌공사
리뷰
##페이스
남자는
닿는
대일
대흥
대입
치즈
대표해서
업종에
운영하는데
그러자
발행주식
지휘를
잡종
간행물
관보에
편달을
##우수
장애물
자신에게
행동요령
정책협의회
수행기관
판매에
##항공기
개소식
내려보
시외버스
강을
녹차
년씩
지식산업
강화군
직위를
다각도로
모태
##했음을
지원하도록
부과된
움직이고
한남
떠났
여인
대상자에게
자식이
공공기관과
공원녹지과장
병원은
##미화
##교실을
이용하면
살충
마찬가지예요
내비
배는
전통과
산불예방
##부진
##력도
경과원
밝혀졌다
한밭
##과에서는
생활할
항만시설
부품을
산출한
결합한
일방적인
System
피해의
분양이
신비
기술교육
##기한이
희곡
포부를
##결손
비교하면
##실용
전시하고
아니하고는
성능이
함락
##경상
우리나
만족하는
궁금해
제안설명에
여력이
세라믹
마리아
타결
무효라고
##직공무원으로
부존
선임할
남겼
납골
##시되
리모델링을
가구당
영역이
하부조직
불응
교육여건
겁니다는
하셨다고
맥락에서
별칭
위기관리
재상
취소의
중식을
치더라도
경기도에는
전환할
전담하는
변경등록
스마트공장
##무는
연세대
안건으로
공장설립
음악이
돈만
단양
열쇠
부과되는
언급한
신용보증재단
##레타
다양하다
명의를
채무자에게
엄정하게
넘고
다지는
옳고
##세미나
일사
단체들이
방해하거나
변모
##수행을
동호회
문구를
##상업
심의의
등록되어
점검했다
채무에
현장실
금은
기업도시
구성원이
두꺼운
도상
여명이
풍물
##절의
번호판
운영되며
##겁고
행정예고
일회용
명하고
##기업인
충전기
보험업법
행정안전부는
골자로
##급여의
피고를
누에
활용도를
##뿌리
전략과
##발전의
상황실을
의원들
##방법이
잘게
해보면
제주도가
방식에서
밑에는
성도
싶으면
의학적
맞물려
자리에는
웃고
추진된
기획하고
소중함을
잡았습니다
명확하지
이해관계인의
자치구가
공직자가
증권의
많지는
스타일
##합의체
뭔가를
정비와
장비는
##암동
TO
구조적인
고등학교의
없네요
재촉
차감
입주민
달성에
통솔
##패스
판매하거나
끊임없는
손괴
일탈
##채권자
양평군
공관
관광안내
전망하고
이때는
다세대
지문
가정이
기망
어휘
혼동
장기적
진출할
인간을
까지의
##베리
성장이
설치비
조사에서
박사는
##하네요
끼어
##당국은
훼손된
과학적으로
##스러워
해석하는
계열회사
대와
맞대고
기쁘다
여론이
휘발유
배드민턴
##어서는
기업집단
Wee
인사와
보급하는
치아
##암은
계약서에
정은
##그릇
사무는
의료보험
장사를
환상
##삼존
상당하다고
농민들이
행정규칙
조사된
최고인민
드리지
입법예
##ign
##실태를
개봉
생식
건설방재
##기념관
인정받은
다시금
##평가의
##기동
것이오
가능발전
유자
명한
뿌리는
화주
개설을
라오스
##시키면서
그릴
수량을
##사고로
##주의는
규칙의
실천할
허용하고
제주특별자치도가
높인
되려면
소비자를
증액하였습니다
산불진화
흔적
토지보상
앉았
시행자는
기업별
마련은
활동했다
앉으
의원에
누군가
대리인의
위가
##회전
작아
##지원사업
언론의
맞추기
예산에는
문제인
이라고도
구역이
전세권
사거리
왕릉
##변화를
##평정
##탑을
아이는
감소와
움직임이
산다
용문
일치하지
앞은
임원은
##접근
자금은
고안
관의
##양수
온도를
재정경제부
각호에
가운데는
##거리며
내용는
세종특별자치
있어가지고
전남과
아니던
MICE
쓰레기가
대포
창당
탄력을
지방으로
기획을
##암을
모양은
어울리는
##ss
일반운영
조합을
그리기
##심의회의
유라시아
예산액은
##소송을
확대되는
소재하는
글자를
어이
##놓을
추진했다
투자협약
공모는
문제이기
금융소비자
조직하고
부호
중등학교
세출예산에
것과는
판례집
죽여
세입으로
잔을
있어야지
을사
##승의
##압류
황사
##요원이
소유권이전등기가
양식이
문서에
항공기의
가져다
넣어야
대추
##층에서
출마
하겠습니다만
가산금
에의
##들에서
제도이다
다르다고
##선사
한국방송
못에
청사를
사용하여야
##구조가
고시할
정원과
이명
침묵
구워
발전전략
##한테는
이석
소비자보호
##쓰고
간장
진리를
심의위원회를
관보
일이나
하셨으면
총재
##직업전문학교
사천왕
아일랜드
임원을
상태의
기울여야
##순으로
책임운영기관의
다큐멘터리
For
정책대
부끄럽
오대
제전
현대의
##연극
편법
하시니
##협회장
산업단지의
염원
##지원이
관리실장
결정하여
스며
번으로
규모도
##거래의
상승한
종결하겠습니다
재발급
세금으로
난대
만족할
##경비를
모르는데
삼은
##정동
양식장
섬을
열리
아이콘
말씀드리도록
벗어나는
한동안
환경수자원
받으실
세계박람회
소상공인과
김포시
괜찮습니다
나가자
발굴한
##기보다
##시키며
검침
##식량
금주
##유한
##공약
보건복지부에서
##존중
이중으로
올라가면
좁아
##사격
시행령이
허용되는
##조건이
천톤
직원들도
원천적으로
농도가
##원천
따지고
##녹화
기본적으로는
주관적
덕수궁
제작하고
건설부
마무리가
외관
설계변경을
엿보
등록증
재정에
사망하거나
동년
판매하고
사상은
이득을
##나리
##날에
생활수칙
##지원센터는
개별소비세
시장님과
##단지를
크리스마스
##비즈니스
해소해
업종의
선생님들
조서
공기청정
발견되지
보이지만
공예품
심신장애
도보
##했으니까
##재단을
감사에서
제한은
##체계에
##프로젝트
한가운데
중간중
##검색
제정하고
단장으로
묘법연
숙의
음료는
##돌봄
살펴보겠습니다
일부분
천사
증가하면서
회차
사업소장
업무수행
불변
실현할
농촌진흥청은
##준수
한국에너지
확인됐다
내일은
논리를
고도화를
선거가
건립이
자인
노선은
재발방지
##피언
##이었다고
의약품을
그치고
##락은
홍문관
##선정
평년보다
병상을
법무부장관
존중하고
정규직으로
기부를
복지정책과장
당겨
축산물의
강화될
개교가
##수출입
충당하기
공소시효
금융실명
##자문위원회
사배
시행하게
누구의
유원지
가방
##사온데
싶어도
차접종
##여대
보고회
결의안을
성당
가맹사업
상공회의소
첨단의료복합
사실이다
##시키려고
소나무재
각계각층의
찬성을
##오지
가지며
관광객의
지위가
농업인이
녹조
학교별
소나무재선충
원인자
서울역사박물관장
죽자
아마추어
##심의위원회를
이제에
방대
수당이
정리하는
모노
성과을
어디입니까
끝내고
천이
시대는
국세기본법
확립에
##하늘
운영상
필요해서
발생하기
출자한
이용권
희망과
거짓이
대규
한차례
##순의
##행사와
확인서를
축적된
내보여야
공히
들어가겠습니다
##시책에
왕자
카운
가동을
판독
위탁에
당초의
재산권을
나아가야
교육과정에
##활동으로
절대적인
매개로
Ag
판본
지방분
##예탁
도면을
##체제의
알레르기
##업과
지원시설
밑거름이
차종
유치가
이행하는
원로
가운데서도
모니터링하고
##의무가
취임한
중앙재난안전대책본부
심사숙고
빠지는
저자
늘었다
몰랐다
조문을
##시니까
##문에서
##배수
서식지
능력에
참여에
변호사가
한도에서
인물을
처분할
##되다가
##간부
제작비
줘도
##터에
의논하여
전하가
전시회는
환경분야
HN
역외
하고도
원할
이들에게
##스키
둥글게
시대로
우리들이
내용하고
오늘부터
물어본
민생경제
닐아
신변
##폐지
행정국
설명에
동물을
인화
사립유치
쓰도록
피하고
##적이라고
전담조직
드론을
결정되는
CR
미진
사람인
과세기간의
가나다
만하다
미연에
삼일
술잔
##명령이
지방공기업법
명문화
줬는데
##녀는
구축된
##행위와
도무지
부여된
서식하는
비공
##사업비로
변경신고를
센터장은
실태에
이상하게
시간까지
소장하고
한국교통
예정인데
##업소에
어린이와
새삼
##나가겠다
##팅을
라고도
##시험장
전세버스
마련된다
소관으로
##져요
##층으로
확대되어
선정했다고
종합감사
인연
신약개발
근무시간
GW
##담당관이
휴가철
##라야
그러세요
의견입니다
기획예산처
과에
발굴하기
동물위생시험
헤이
지정해서
주주총회의
생선
확정되지
퇴출
교육용
혼인을
종합복지
광역지자체
생겨난
가지면
##은행과
품목이
재료로
아니다는
죽인
소공인
입으로
투자심사
건의안을
국토부는
뿐이었다
지원내용
수입식품
전략적으로
걱정하는
무엇이며
인도를
심사하는
상대적
관계중앙행정기관의
소에
##난히
자신감을
차단하는
형성이
##종합계획
되겠고요
##예비군
교실을
배포할
말씀하십시오
하천공사
##군경
방역관리
올리브
영흥
부서에서는
감염병이
입산
과자
##느냐에
막혀
제공은
항공법
가출
참사
##점수
사용승인
주거용
교통시설
도시계획법
환경부장관이
##드에
국민참여
구성되었다
연습을
대기업의
서울특별시립
치료비
향상시키는
##발주
개발하기
과적
도입과
북쪽으로
사회간접
바이오산업
##ack
수출에
문화원
수정할
하시니까
cc
아내의
비로자나
##프로그램을
부재자투표
직원들에게
통신제한
공무원교육원
권으로
##OS
씨름
##롭다
전문가들
오른쪽에
공인회계사
##산입
##범의
기술원
특별교통
##주어야
제공하며
조정은
그려진
호스피스
공개적으로
보상비
테마로
후회
대구관광
법령과
확고히
ch
육종
버팀
배서
판명
예치금
금호강
이루기
개교를
구하기
##지원센터의
움직이지
다하도록
##향상
활동하였다
환경본부장
노면
선택하는
그림은
안다
제약을
하절기
일반행정
김에
성립되지
분이나
##구상
국정원
현상으로
숨김과
인생을
자국의
통칭
##편익
같습니까
아저
사망에
횟수가
요구하거나
미만은
글이
교육부가
친구들이
민원실
반환할
제주도청
배수지
##와도
##연습장
수경
해외로
의뢰한
보았을
완성을
음모
곱하여
##맥이
운영위원회를
예술감독
경쟁률을
한국산업인력
여과
억만
##하십니다
보조금이
기여하기
책무를
증가하였습니다
보내야
##청렴
지원하고자
양성과정
빠뜨
영입
연구시설
반짝
##이에서
##사례를
초본
##창에
체육과장
산란계
갔던
치킨
토벌
매립에
일러스트
##활동비
구분할
수질이
감격
##거래를
농촌관광
국가연구개발
없는가
기간내에
전기사업법
받았으나
메신저
안면
정책목표
집행부와
곡식을
##주어
사회통
전원합의체
굴러
열과
화합과
중원
한지
없으신
바이올린
##만치
##con
피해자에게
페어
##송을
해소가
기각하기로
##숙박
배급
이러다
특정범죄
장비와
해치는
행방
받으신
바라볼
대전에
교통카드
되든
발상
민간투자사업
업무도
상황임
구조조정을
위촉을
서적
우아
개최됐다
워크숍은
개폐
연인
온전히
층이
##추계
이용의
푸드트럭
두레
짧고
##키지
신청하지
운영규정
보호소년
배치하는
통과하는
아동청소년
중복이
자리매김할
버튼을
##심사의
지원체계를
재능기부
##심층
##후견인
품에
변경허가
벌레
##못해
매립장
성숙한
제안하고
##신청은
명령이
명기
확충해
설정할
대물
의향은
축협
지급보증
받기도
정벌
##테마파크
넘습니다
중국산
이영
##양에
홍보물을
체험행사
언급이
사라지고
트레이
들어간다고
성지
##중재
외벽
인천에
물건에
조세감면
매장문화재
부에
관할세무서
열리며
##발명
투융자
방법이다
집현
##마을을
노후화
생산비
실무위원회
부처에
##집중
km를
학문적
키가
취하여야
옥내
총수의
##행에
##센서
근무자
연수구
피청구인
관심도
싸워
이동경로
##경영자
공단에서
내란
브레이
심을
목포시
후단의
이것입니다
누차
제거할
차제에
부분인
파악은
매력적인
깔려
가라사대
겹쳐
아닌가고
김기
생기기
연구과
공정거래법
불기
인에
시국
주셔도
히트
개발계획을
규제자유특구
돌리고
호화
경사가
운영함
생활폐기물
자신도
분들께
음주운전
##보리
심부
청원을
결과도
지붕은
##미리
지상권
해양생물
향상시킬
남방
예산회계
못지않게
진실한
첫해
사회적경제
폐지에
중학교는
이차전지
계속된
난을
학생들과
천거
여호와를
들어설
##마저도
##부담을
임차인의
답변하시는
우편으로
도시민
제조의를
교사들이
등산로
##우를
미스매
##조심
심사하도록
주목할
높기
특례를
더운
떨어지지
맞이한
영감
일월
서점
어떠냐
##지소
잠재력을
참여기관
배웠다
건에서
초급
국채보상
교환을
##단체로
측면에서도
무농약
소식이
포함될
본법
관리자의
죽게
생계비
글씨를
입각한
평범한
영업이익
##예산에
왼쪽에
계속하겠습니다
실국장
참나
가족들이
##대첩
짓게
재난예방
##치료를
요구된다
##약정
확산되는
지신
품의
건물과
않으셨
복개
학교교육
맞배지붕
모욕
범하여
공공복
허가에
세출은
바이러스가
음악의
할애
##하루
못했고
사업계획의
경영이
조건은
수요는
sp
시주
입이
짜고
묘를
업무추진에
활기를
중요함
연구도
유아교육법
두며
세부사항은
유관기관과의
착공하여
Net
범국민
올해가
심사보고를
이불
인정받았다
지적공
##해진다
##대상을
운용할
자율방
경기개발연구원
건수를
수제
사다
##연방
문항
향하고
부스를
##녀를
지도하고
나름대로는
강사가
세율을
영상이
한민족
운동으로
총리령
안았다
조치와
국장님한테
부드럽게
##환급
알아듣
세분화
감은
사실관계를
##회사에서
근본적
하시겠습니까
차원에서는
의결된
##장하고
##자리에서
본존
컨퍼런스
차단하고
월경에
##으려면
##됐습니까
##악기
결정하기
##당하고
구분하고
학부모가
##가격의
##권에서
##RS
##는지도
신뢰도를
##박람회는
##착륙
##놨습니다
##어라
##혼을
페이지부터
##승람
증거의
산불이
자치단체에서
돌아다
소상공인을
지하철을
저비용
넓히
숲속의
양배추
생산성을
배치해
냈습니다
도리가
확산이
제대군인
교육청하고
남북으로
##협회에서
신의성
CF
비파
위해선
더도
문해
알찬
##자루
넘어가고
불요불급한
##관로
신뢰가
##려한
승인에
다원
풀을
이렇게도
##사업자를
욕심
이문
초의
##개설
적용된
일당
임도
##거래가
아니어서
관리해야
체계로
위반이
보복
##유지를
진흥과
##질서의
제공하게
편익을
승진임용
중앙정부가
무연
훈장
##보전을
##시에는
데이터의
##라를
##귀가
바다로
##reen
헌법이
모색할
말씀과
물어보고
틀림없이
서울디자인재단
##폐수
##텔레
내년까지
##ern
##말의
공감할
장식이
전을
촉매
관계인
신용등급
##시켰고
##정착
기상관측
이렇다
사명감을
네이
정치의
##추진단
손은
##행으로
근로자와
구심
이해도를
##노동조합
농림축산식품부령
동향과
##졌지만
못했기
가치에
끝은
동업
학교생활
기대되고
법령상
그만한
무기를
어진
읽기
적출
관리사무소
사회간접자본
말씀드려
##투자자
선풍
음란
홍성
##트와
지하도
환자에게
환경미화
지낼
##포의
고등학교가
노년
재정비촉진
베풀어
지사와
대전의
만년
요즘에는
##신문에
농촌에
손해배상책임을
경국대전
사장을
발표한다
핀란드
사랑하고
서면에
낮추고
비행기
오랜만에
방제를
용호
입회
감염된
문화재청은
계량기
석굴
생각하건대
걸립니다
##군사
미비한
들었고
살을
중얼
심판대상
확보로
예산액이
여성농업인
한라산
밟고
해양수산부장관은
착공이
동명
##소자
##첨가
미역
##지기도
가시는
역사적으로
여진
활성화하는
드렸지만
사모투자전문
소장이
감사위원회
일주일에
무관하게
기초하여
다한
천혜의
홍보하기
주최한
의결하도록
##내려
아니겠느냐
위반을
경의를
전통예술
코를
총규모는
존재는
색다른
재물
위원들께서
선수단
수원의
합의된
